memory_initialization_radix = 10;
memory_initialization_vector=
5
-3
-5
-3
-18
1
6
-11
8
3
-9
14
-4
-14
-8
-29
-34
16
-37
23
11
-14
-30
-23
-36
32
9
1
-14
-25
-29
6
17
-3
-37
-1
-38
-8
17
-15
-18
4
-45
-13
-14
3
11
3
-49
11
-27
19
11
4
-61
18
-35
14
30
0
-29
-4
-1
-2
-31
-31
-80
2
2
29
0
-8
-69
9
-40
2
4
-10
-57
-29
-58
-6
12
-12
-17
-48
-3
-7
33
22
-77
36
-1
34
17
-35
-69
10
-17
38
28
19
2
-37
-34
-3
34
-7
18
-33
-5
2
-3
19
22
-6
30
-18
-15
8
-72
11
-39
51
14
17
-88
9
13
43
43
67
-42
-57
-19
-15
4
27
15
12
14
-50
-4
35
26
17
11
-4
-34
-13
-33
-19
44
-28
6
27
-22
3
55
-33
-23
19
-31
-8
41
-22
-28
-22
0
13
31
-23
-30
7
-12
26
14
4
-7
2
-23
-9
15
-26
-20
8
-30
26
13
-28
-5
-33
-55
19
4
-17
-24
-29
3
47
-17
-16
11
-20
25
1
-29
-3
5
-14
-30
29
46
-7
-35
-2
-37
55
21
21
-15
12
-26
29
10
-3
29
3
9
-7
-16
4
1
0
12
-10
-8
-2
22
22
-65
51
14
27
6
25
-5
49
-2
0
35
31
-13
-7
-33
-5
28
37
9
-16
-7
-5
17
50
44
15
13
-6
0
11
-65
8
3
27
34
37
-21
29
-18
14
13
16
10
-2
-13
28
12
37
17
-24
-28
2
7
2
-9
16
-19
2
-6
-5
67
2
-39
22
-30
-45
10
3
-25
13
-11
-39
-6
0
-54
37
-3
6
-32
-17
-36
22
29
0
-16
-26
-42
14
-7
-8
-46
-6
-27
7
-46
-44
-40
21
-22
43
26
10
-21
11
-34
25
32
10
17
13
-32
0
30
14
7
-10
-25
5
15
11
-60
41
-8
12
-23
-45
-38
35
-7
16
36
39
5
-23
3
24
38
41
23
-32
5
-12
-2
22
15
-14
-15
-27
-13
0
-30
10
-45
43
46
-17
-34
8
-7
32
49
65
14
-48
30
-41
22
44
18
0
6
-38
-18
-20
38
-7
-6
-21
-16
-25
-8
-26
2
20
31
46
-3
-12
14
-43
-15
11
34
-32
28
-49
-31
-32
5
-2
-21
-18
-5
-30
4
-32
-15
-35
-22
0
-47
9
21
-7
-16
8
-74
17
18
14
3
30
-38
8
-19
-7
6
23
-20
-2
6
-9
-21
-23
-2
3
15
-25
-22
-2
-9
-3
14
19
-17
-19
-69
20
-2
28
22
23
-33
-20
-4
3
20
33
27
-10
-19
-20
-2
3
35
-12
-11
-15
-10
-13
-1
9
-13
19
-35
-18
-60
2
-34
-4
18
29
-18
-12
-42
7
8
27
0
0
-19
11
-7
18
4
-5
-27
-1
2
-10
1
31
1
8
1
-21
-14
30
-45
23
3
13
-39
16
-26
17
18
26
2
-35
-48
9
16
11
17
-8
-18
3
-10
-11
4
-5
-30
-14
-17
-14
-1
22
-36
16
8
6
1
31
-50
22
5
-5
6
-21
-51
21
-17
21
28
-21
-23
-13
-19
8
-16
-8
-6
10
-34
9
-79
49
-4
36
-7
73
-50
4
-1
-3
34
52
0
-20
8
-53
-7
45
22
-3
17
-14
-37
-1
-14
3
6
10
-40
1
-49
52
-33
33
3
29
-68
-5
-22
16
14
61
-42
-40
-47
-38
-4
41
-8
5
-34
-1
-7
7
6
27
17
9
-55
-41
8
64
-39
22
3
-8
-43
9
-78
21
-13
10
-31
-47
-76
23
0
-29
-41
2
-30
20
26
28
16
14
4
-34
-13
-37
41
64
-67
15
10
10
50
27
-102
16
-13
-19
59
-36
-76
27
-9
-54
52
-40
-11
26
16
0
-1
-8
25
-37
-33
-23
12
30
-45
-9
-14
-6
56
1
-54
-31
-12
-27
28
-38
-32
-10
-19
-6
63
-54
21
0
11
9
29
-29
14
-34
-19
-35
-32
30
-28
3
-19
-47
-26
46
-23
40
5
40
-20
8
-12
35
35
28
7
-17
33
-22
2
27
-53
-19
15
-26
-48
-34
-50
22
-32
13
-14
-47
-5
50
-33
1
36
38
-1
-26
34
-8
31
38
-12
-26
39
-48
-17
14
-38
0
1
-21
-28
-79
-19
42
-6
0
12
6
-20
35
9
5
16
60
-11
-42
48
-46
-22
22
-2
0
61
-43
-27
-7
-48
24
11
1
25
-13
-22
16
35
1
29
39
-9
4
50
-32
10
15
-22
-23
23
-37
-48
-27
-39
13
-3
-33
-37
-45
-9
10
9
-11
19
53
-30
23
40
-28
0
33
-39
-24
25
-9
-20
5
-49
-2
-12
-12
-48
-34
-58
15
-8
0
-29
-10
-19
-29
-29
-18
-24
-13
-1
-3
-32
-2
0
1
-31
-15
14
-12
3
-7
-23
-2
-33
4
-18
-26
-9
-13
-31
-34
4
-1
-2
-19
-12
-35
-5
-26
-29
0
35
-5
-20
-35
-17
-16
6
-34
-7
-22
-23
17
-35
-14
-3
1
-5
-32
-30
-20
-35
-8
-23
-12
-34
-18
-21
-24
0
-29
10
-12
-35
-19
-1
-15
0
-22
-4
-28
-2
-28
-31
0
27
-4
-24
-31
14
-11
-21
25
4
-1
-20
-21
4
-31
-26
-29
11
-11
4
1
2
-7
-34
4
-29
-23
-9
-8
-25
-28
31
8
-29
-24
15
-19
0
-16
-28
2
-21
-13
-15
-13
-1
21
-3
-33
-13
-35
-8
7
-22
-2
14
1
-13
-26
-3
-7
33
32
-10
-11
-33
-19
-2
-18
-7
22
6
21
-29
-45
-26
5
-27
38
21
15
-32
19
-36
17
8
11
-6
-24
-14
-8
2
23
0
-5
21
9
-20
3
-59
-3
-2
28
7
-16
-62
13
-35
12
33
23
-37
0
5
-20
4
43
0
0
31
-25
-12
13
-8
-22
-12
-28
-30
-40
-20
-13
-38
35
32
35
-24
-6
5
11
2
41
-7
5
42
-27
0
19
-26
6
13
5
-10
-22
-1
5
5
4
7
-26
-4
-9
23
-13
8
48
-6
-12
25
-17
2
37
-7
-19
7
-9
-19
-16
-43
-6
-30
5
11
-8
-30
-6
-41
-8
3
-16
15
4
-5
-11
-2
1
36
-8
-10
-13
-36
-38
0
-20
-57
-3
-28
-21
29
-6
-37
14
-11
-2
1
-31
-18
-6
-13
-20
10
4
-2
7
0
1
-19
-33
-4
-3
19
-1
-32
-12
-7
12
-17
7
-46
-18
-10
35
13
-2
-24
-4
-17
10
52
21
2
35
-3
32
-6
-12
0
19
-25
26
-7
-12
-8
3
-42
36
6
-22
6
-30
-30
37
5
-17
17
-42
-32
27
24
19
35
19
-13
30
24
-5
27
9
14
19
-3
-23
41
-13
-11
-9
-4
1
32
-26
-25
18
16
-12
42
-1
-35
47
18
37
32
-8
36
-15
-16
-9
47
-41
29
-1
-9
11
13
-28
26
-42
-35
2
62
23
-2
0
-20
-17
12
26
3
31
22
-8
1
-17
3
-36
-22
3
-12
-32
15
-17
2
14
12
-43
27
-28
-22
-13
17
33
0
-1
-42
-13
21
21
-21
0
18
7
39
39
11
30
6
-12
34
12
17
47
45
-2
66
46
-22
17
54
-19
68
22
-17
25
2
-20
76
-28
-34
39
-7
-17
70
-25
15
-8
1
-24
58
-22
39
-23
-21
-20
75
0
48
-30
-14
-1
62
-1
32
-14
15
-14
70
15
-18
12
-3
-25
54
-92
-3
-58
-19
-29
54
-44
22
-24
-53
-28
8
-52
28
-42
-41
-78
45
-18
12
-43
-3
-56
29
16
-14
-10
-12
4
-16
-31
-34
38
17
-30
-36
-71
-33
-14
-8
-2
0
-61
4
0
11
-16
-21
-30
28
-37
-15
-38
-35
-17
36
-18
-15
-27
16
26
-4
59
39
-16
-29
-14
10
32
16
-4
-13
-20
-10
47
41
4
-18
2
-15
34
33
21
-64
-50
11
7
7
-2
-24
8
-20
38
13
-22
10
23
-4
16
0
-19
-20
-21
-36
42
26
10
-6
-9
-55
36
34
27
-13
-13
-56
39
24
7
38
49
-28
34
17
-25
53
17
-30
10
33
-11
36
-12
-21
7
-2
-20
61
-18
-51
33
10
5
23
13
-68
11
0
7
37
9
3
15
6
-21
37
-2
45
-11
8
7
52
-29
29
0
-21
-35
74
-4
-20
17
-29
-39
53
-3
-65
1
-25
-9
33
-33
32
-36
13
13
15
-56
60
-39
7
-7
11
-22
51
-29
-28
-29
24
-17
-16
-32
-16
-39
28
-24
-23
3
-10
-13
-12
-18
25
-26
1
5
-44
-3
17
0
-19
20
-27
-6
31
14
-1
-30
-46
11
8
-6
-10
12
-26
-21
-4
7
11
-5
-54
0
13
17
-16
31
-56
49
-21
-4
-10
14
-39
42
-14
-6
23
30
11
-8
23
-46
8
47
-12
20
22
-36
-7
11
-50
20
1
16
2
46
-39
31
-14
-4
10
49
-7
-23
4
2
-6
42
-40
-30
16
-19
-23
21
-13
25
15
15
12
11
4
31
0
31
8
10
-32
-8
-40
25
0
38
-14
-20
-37
-8
4
5
-72
-33
-31
17
-5
-10
-66
-15
-21
23
2
-4
21
4
-34
14
1
-23
0
-10
-37
11
-2
6
3
-44
-43
18
13
-41
-30
-19
-57
18
12
6
-16
-53
0
26
11
18
40
-13
-13
-22
-5
-24
10
-21
-18
-5
-1
-34
27
-5
-22
4
-27
-26
9
-8
-10
-18
-23
-10
-13
-30
-15
-4
-3
7
-22
9
-23
13
32
30
35
-11
49
14
-5
9
21
39
14
-23
-6
-8
10
41
9
-52
11
16
-18
-11
26
-49
-28
0
-42
-15
30
16
23
53
4
12
55
-18
15
27
1
37
25
-24
-21
11
2
37
24
-67
-30
-25
-9
57
5
-27
-41
-39
-37
22
43
39
10
55
-29
36
18
-28
0
26
-24
22
18
-47
-32
2
-34
57
-5
-56
-37
-66
-45
58
-5
-22
-20
-60
-26
32
66
5
5
33
-15
16
35
2
13
32
-8
24
33
-48
-26
-3
-27
55
13
-48
-59
-66
2
44
20
-22
1
-11
-24
54
47
22
15
32
-37
13
40
-12
13
-1
-19
62
21
-55
-44
-24
-20
53
-2
-23
-36
-38
-9
40
24
2
29
15
-49
2
-19
7
-5
2
-42
-14
-9
6
7
-6
-19
-20
-5
-4
-17
-1
-45
-24
-29
18
5
20
-24
-18
-23
-34
-14
-3
-2
-11
3
-13
-33
-35
-11
-2
-36
3
-9
-23
-48
-2
-4
30
-5
-9
-23
-16
-10
27
31
33
6
24
-29
-4
12
-5
31
-12
-4
-10
-27
-25
-1
-1
6
29
-43
-55
-47
39
-44
19
4
-26
-58
18
-24
29
25
16
21
10
9
2
7
4
5
-32
-29
-5
-29
-67
-22
43
-29
20
-9
-30
-52
19
-15
10
13
12
-42
3
-15
5
47
54
2
-4
14
-51
-16
13
-6
-3
0
-5
-28
-71
-42
16
-7
28
4
-39
-45
71
-33
33
40
42
-58
-40
18
14
33
63
2
-12
15
-42
-48
8
-6
43
25
-43
-56
-20
-46
45
-10
14
-20
-20
-45
1
-30
20
30
27
7
-14
11
-26
13
28
20
-12
7
-44
-31
-30
9
40
16
-55
-68
-15
-5
69
7
6
-11
-33
-65
10
-32
10
48
50
-28
-48
14
-22
0
26
-9
-6
0
-49
-13
-26
-40
43
55
-49
-42
-31
-27
79
-28
16
-23
-22
-59
4
-15
23
15
47
-33
-53
10
7
-2
40
-21
29
15
-47
-52
-9
-9
12
21
-48
-31
-42
-3
57
-5
3
-15
-29
-19
44
-37
29
34
35
-10
1
-4
-9
14
32
-11
31
5
-7
-34
1
-16
8
24
-16
-20
-44
21
61
3
-20
-17
-11
-13
54
-40
-2
19
12
-31
21
-9
25
-4
6
-24
5
-21
-12
-12
29
2
14
28
-4
-17
-1
-25
-10
14
-10
18
41
-4
29
40
-9
-13
23
-26
50
57
7
-33
-15
-46
51
17
12
13
18
0
-7
40
-7
-3
24
1
-20
14
-21
-15
18
49
-13
48
-42
-32
11
61
62
17
3
-43
-34
62
51
11
18
-16
-34
-45
1
18
1
-13
-29
-17
-10
-13
-16
5
17
30
-38
9
-24
8
5
61
18
-23
-48
-30
-2
85
33
-5
-30
-9
-14
-2
1
-27
34
17
-22
-27
-36
-9
21
24
-2
-24
-26
-52
10
19
26
0
-13
-35
-21
24
11
-19
-14
-10
-21
3
-24
16
7
-10
35
25
-24
4
-3
-22
42
-6
-16
1
27
-58
47
2
6
-50
4
-42
19
18
-2
-52
-8
-32
7
36
12;
