memory_initialization_radix = 10;
memory_initialization_vector=
-10
-4
0
-5
6
-17
20
-28
5
24
21
41
-27
-64
-17
6
4
-24
-6
-16
21
6
8
-3
37
-21
10
-20
-11
-4
14
-20
4
30
-21
-7
26
-7
-25
10
13
13
-26
-5
-20
-29
27
-9
-34
0
16
0
21
-6
14
-23
37
-23
-7
-3
6
14
-14
-26
8
0
7
34
10
-35
33
22
-17
-5
15
-6
-28
7
12
25
-20
43
6
-5
-10
-17
23
20
-10
19
-9
-3
-16
0
-17
6
7
15
27
36
-4
10
14
-14
-6
8
-12
-20
14
-2
-7
33
-11
1
5
-17
-37
37
-4
26
-24
-1
-2
14
-9
-9
8
-12
-1
8
11
48
5
-28
12
-4
0
42
-10
0
-13
8
12
3
-23
-1
17
-26
-9
8
-17
22
-20
10
28
3
-4
-21
-2
28
-8
1
-21
-9
24
-19
19
7
6
3
-14
32
-6
12
-25
-29
2
13
-45
17
35
9
-9
2
-3
-12
32
11
3
15
34
-25
6
8
18
30
20
11
-13
-19
-10
-8
-10
-1
13
2
33
13
52
30
0
0
18
16
-8
8
14
-9
3
21
13
26
27
-1
-8
-24
-7
10
7
11
15
-10
-5
-4
-7
-16
-21
43
-60
-7
13
-21
12
19
21
3
36
8
0
-5
27
35
16
-12
27
-17
18
-28
0
6
31
11
19
12
27
18
36
-34
40
50
8
62
21
-7
8
0
22
38
44
42
0
4
9
-25
-19
-21
34
10
2
-23
43
16
3
1
15
13
4
-2
-34
0
6
18
-19
37
-3
21
-9
-2
18
0
-1
-37
-2
29
3
22
23
14
11
-12
15
-39
-14
-6
20
-10
4
15
-24
-24
10
-46
2
-11
38
30
-15
16
0
15
-10
1
0
19
4
-37
0
1
-43
7
28
6
-51
-1
-18
29
-13
22
-6
60
6
25
-3
-20
0
13
8
-4
-23
-15
4
1
-24
-3
-2
11
-16
-6
18
-3
7
0
21
-3
27
1
-6
38
-3
-16
6
10
37
4
31
13
27
60
7
-3
-20
-1
25
0
-19
34
0
24
2
-6
-1
-5
-10
13
14
23
4
-30
-3
11
0
32
26
10
7
1
0
6
-25
23
-7
4
30
38
24
28
-2
15
-6
-11
21
10
22
-4
-3
13
27
-2
-41
-8
-23
-21
26
25
46
34
17
3
26
-4
-8
2
-2
12
-10
-21
-26
-7
0
0
5
-25
-15
-21
10
33
-3
-4
42
-2
-9
0
-6
-8
-17
-2
-16
4
20
12
4
-34
0
27
3
-6
-5
-14
16
28
-20
-51
12
-9
-2
-8
4
-4
1
8
-5
-80
0
12
17
-13
-10
-15
106
-19
-3
35
-29
18
-6
30
-7
-7
20
26
10
-10
-17
-2
-7
11
20
-22
-1
-29
6
-22
-3
-2
21
0
4
21
15
12
3
-7
-24
-9
-5
20
-49
-12
-17
-9
-27
13
0
-5
11
11
-8
8
28
7
4
25
-19
0
21
-23
-14
22
-15
17
29
23
-15
3
-9
1
-6
-9
38
26
-11
24
15
18
-14
10
9
13
47
-18
4
11
36
-2
6
-14
-13
5
-6
14
26
5
0
-43
-19
-24
-23
-22
4
6
20
16
8
-26
15
18
0
14
-10
-12
2
-20
13
-1
-37
-1
17
4
-31
-20
-28
-14
-11
29
-19
14
34
19
0
-28
8
-4
14
27
-8
1
-26
-30
58
5
10
9
7
-5
-19
16
-3
15
-4
-10
38
8
24
-17
-2
-6
18
23
-2
26
-7
44
0
-7
4
-9
32
11
-7
41
-15
24
30
1
-29
-22
1
17
24
40
-17
-16
22
-14
11
36
-10
-23
1
-19
-27
32
-9
-23
0
12
-27
7
-30
-9
-5
1
-17
16
15
2
-16
31
8
11
8
-24
3
-7
28
27
-12
9
-22
28
-2
3
-11
10
-8
-9
-18
-15
-13
15
21
-82
-23
5
6
13
-4
-30
34
10
-11
14
-31
6
24
23
-12
-3
-9
-29
-6
4
-26
23
-12
-5
35
30
50
2
21
-5
-3
-27
8
12
0
-1
4
-7
37
17
-30
-11
-3
10
-15
-25
17
16
-22
47
17
-32
-8
-16
-14
-4
-4
15
17
34
-1
15
-27
-20
-23
18
7
34
-17
9
-24
-8
5
37
5
15
15
15
-28
-14
5
-12
-11
-20
18
-4
23
11
-18
1
25
-3
4
17
43
-21
20
-8
5
57
-31
-41
8
15
-26
-32
-16
-24
-13
25
19
28
10
-7
7
-14
22
-30
10
16
34
-1
-38
-4
4
-5
10
27
18
33
-22
-4
-27
-47
-35
24
-3
-21
7
2
12
43
20
-21
15
1
30
0
2
-11
28
-30
10
-15
-3
29
-7
-14
17
0
3
25
26
29
13
-6
23
-5
13
8
-33
0
15
-16
20
24
-20
-14
-32
-22
0
37
11
42
27
7
-5
17
1
-7
32
-1
-38
-14
3
41
7
-18
35
6
-26
18
24
10
-11
25
-6
20
26
24
-23
21
-34
12
2
9
3
-10
-15
-32
17
13
-20
28
7
-12
-2
-5
8
20
-6
9
15
6
-42
28
12
-49
-4
-2
14
-27
-6
-26
4
38
36
4
-23
-14
13
-7
17
19
-24
24
33
-19
-29
18
-7
-12
-1
-10
-32
25
60
-4
-29
-20
13
-37
-33
16
-11
-20
-35
-27
-19
32
-4
16
-12
28
11
-46
22
13
2
14
2
-25
20
0
-4
15
-23
-8
5
-13
4
38
-4
33
-23
0
4
24
-9
19
28
12
4
35
14
29
-22
28
27
-39
-17
-18
-5
-17
21
-19
35
-21
-7
20
-14
0
14
-17
32
17
18
-8
25
3
6
12
35
19
0
-3
16
-1
16
-3
7
37
21
13
27
-30
14
18
-34
18
-27
21
15
-14
3
-3
-11
22
12
-11
8
-2
-22
-45
11
-31
1
-6
8
12
10
5
-19
23
-20
-16
-63
-4
-17
-18
8
24
-26
19
12
6
-7
0
16
-26
-22
-21
2
19
6
-11
40
23
-20
-30
-24
-3
6
0
18
-4
15
10
12
22
-8
-9
36
-10
-3
17
-12
2
-8
21
8
-7
-9
17
0
-11
-41
-7
-15
-18
7
-1
-16
21
-4
-10
-19
4
-21
8
14
-22
-20
-22
-18
-25
-4
21
-30
13
-13
-13
28
-9
5
-8
-16
2
-34
-9
-25
-29
0
17
-7
-19
-6
-5
-10
16
-33
-17
-10
7
-33
16
-10
-12
-25
-29
-4
4
15
-8
-15
-20
-10
-5
-18
-1
-17
-26
0
-19
22
12
-22
4
-10
-17
12
-28
-15
-7
12
-10
-19
19
-25
10
0
-29
5
8
-18
1
10
-15
-6
-1
-10
21
13
-8
-18
20
-8
-1
-13
-32
2
-36
-8
-27
-13
-3
-7
-30
-35
2
1
7
1
-1
-22
0
21
-23
-21
-31
-23
-5
19
-10
-22
7
14
1
20
-34
3
8
-18
2
-13
11
0
-9
-8
17
-10
-42
-12
-13
-13
-6
-7
7
-30
-26
-8
20
-25
-1
-25
-15
34
-3
4
15
-2
20
-16
-29
-13
7
72
-4
-22
-3
12
-1
-6
0
-7
-13
10
-35
-4
-12
9
-23
23
16
-7
-1
14
8
21
15
21
6
-9
-1
9
-7
-2
-5
-15
-16
-30
-21
-19
-16
11
-17
13
2
-12
-21
-11
9
25
19
-7
-6
9
-39
-14
-33
-34
-11
37
6
-20
14
-26
-9
-41
1
-14
-1
0
-34
-1
-21
43
3
-7
-43
-3
5
10
0
14
-17
-1
-16
30
-29
-11
-26
23
-11
-3
3
9
-17
30
-35
10
28
1
14
-24
34
-15
9
-16
-2
-4
-1
15
18
7
-3
-31
6
3
-10
-7
18
-23
5
15
15
7
11
19
33
13
18
-19
-11
0
-12
-16
24
20
-31
-6
-22
-9
-17
21
-16
-23
3
-14
4
11
0
10
-21
-20
31
16
23
27
-19
-31
-11
-37
15
8
-18
8
8
-15
2
0
-10
0
21
-1
11
5
-3
-32
-7
-2
10
28
16
-32
-11
0
39
13
13
19
16
-15
7
37
6
50
3
4
-4
16
-4
3
12
-17
0
4
-17
-29
-3
-1
-29
-37
-37
-41
-18
11
7
-5
-2
-18
6
-1
-15
2
-33
11
4
-22
-15
7
5
10
-29
-45
-17
-25
2
15
-30
-2
36
-30
-2
13
-17
6
-18
-17
-24
-27
-22
-19
-46
16
15
24
-14
-45
-6
-1
-33
-18
-36
-6
-37
-13
-9
-2
-1
25
-25
11
-19
7
-38
-22
2
-6
-17
-23
18
-15
-34
-5
-10
2
-29
-32
-11
-5
0
8
-2
-24
19
13
-32
7
-20
-23
-19
-10
5
3
-30
-37
-4
-20
-29
-10
-1
5
-28
-11
-28
-5
-34
-39
-16
-13
-12
15
-23
32
-26
-18
4
-20
-10
22
1
0
-9
-18
14
13
13
16
7
12
-40
4
4
-20
-21
20
1
-6
-10
10
28
-1
-19
-38
-13
-3
-4
-7
54
4
19
4
3
-7
15
157
-14
-16
-5
1
2
-12
-19
-28
-22
12
-19
-14
21
-13
-24
18
-1
-7
13
103
-11
-9
11
-5
-29
-17
8
-3
-28
-19
3
5
-26
-2
-7
-6
12
-1
-48
31
-7
8
-10
-41
13
-3
6
-18
34
-26
-55
-1
-16
-39
-12
2
35
-13
19
-22
11
-47
-28
-5
17
-10
-7
13
-40
-37
24
20
-6
-44
-18
-21
-2
-21
-20
12
6
-30
10
8
1
33
-11
24
-14
16
-6
-10
-21
-9
12
4
-11
10
8
-5
2
-6
26
-5
-31
3
8
-29
8
-6
22
-20
-39
-13
35
-8
32
2
9
9
5
-7
2
-7
-22
-15
7
10
-10
-16
-25
0
-33
4
-15
-24
22
1
3
-7
-4
23
6
23
-14
8
-6
-19
12
-17
-28
-1
-31
-5
-14
7
1
-12
9
-19
9
-28
-11
-11
28
-8
9
0
-3
23
1
-18
-22
1
-25
-4
-11
-3
-4
-7
5
-27
-14
32
-35
-6
-23
-14
5
-22
4
3
7
-5
-14
-5
1
-22
6
-6
2
1
11
-7
11
-26
-29
53
-36
6
-13
3
63
34
-28
22
-30
9
-4
2
-35
27
11
30
25
45
33
33
-34
41
-11
-10
-8
25
14
-32
22
31
76
-9
20
16
-12
3
10
-20
-21
0
21
-20
5
-6
1
4
35
27
3
-32
-4
-59
46
5
4
9
39
17
39
-37
6
-19
-11
-13
-39
33
-14
1
-13
33
24
6
34
40
-11
18
-12
12
-18
28
4
-4
-9
-4
-28
23
-28
16
43
-7
25
0
-13
-36
8
-5
-28
-36
-60
10
-3
-15
5
0
-18
-16
73
-9
19
-19
29
-38
14
5
-13
3
1
0
-21
3
-13
-14
-8
-2
-25
-13
-3
-6
-12
2
43
5
11
24
27
-32
-17
-37
5
10
26
-51
-15
-2
14
23
-1
-29
26
8
-50
12
-6
32
-14
15
-10
-14
-7
35
-14
34
31
-15
-15
0
-16
-47
-20
22
26
-42
13
1
-12
-2
23
15
5
0
13
43
21
-2
20
35
9
-10
0
32
29
-1
8
-17
16
29
1
-32
-9
-38
-2
15
40
20
16
37
-23
-11
-13
19
-22
1
-11
36
27
45
-27
-5
-11
-37
22
73
-21
-34
27
27
-10
-3
2
-1
-3
-21
-13
-21
26
9
5
16
-18
-38
-24
-20
3
10
14
2
69
14
45
-22
-39
-5
-13
8
3
-37
-8
-18
-19
7
16
2
-26
6
-6
10
19
-5
-27
-1
-1
-10
30
68
18
5
-10
-20
-11
38
-20
-13
63
36
20
12
-14
-16
-27
-19
-4
-47
1
23
-20
10
-31
0
-12
-12
-4
34
16
-2
15
3
7
14
-19
-10
10
4
-17
6
2
-28
16
10
12
-14
20
-52
-22
9
-1
-27
-6
-20
-12
14
-25
13
-7
-3
16
-28
-9
-8
-8
-15
-15
32
-15
-12
-1
30
-1
-10
30
-12
-3
23
-11
39
5
2
4
32
31
12
17
-15
-18
15
-24
32
37
12
21
11
-11
2
-13
29
15
23
-3
-7
6
-25
41
20
-3
-6
-8
19
12
32
3
4
-11
-4
-4
-16
-4
-1
-1
-12
-1
-7
23
35
-11
-34
-28
30
32
-13
25
-26
26
60
21
4
14
1
10
23
-8
-21
-21
-27
14
6
28
10
30
-3
-36
24
15
28
-11
8
14
-4
37
-13
-7
-4
-24
-15
18
17
-10
24
22
15
0
-6
-28
-4
-18
-14
-12
34
0
35
14
-25
1
-7
-15
19
-24
-5
1
1
-16
-13
-42
-9
-28
-3
11
34
35
14
37
-8
10
13
0
4
24
38
30
31
25
41
21
-3
-15
-12
10
25
25
5
31
25
11
11
25
27
33
24
-11
38
-26
12
-36
-32
34
-8
26
42
5
22
-9
-7
2
-4
-37
-7
10
1
38
8
0
12
-3
59
0
-21
18
-4
-1
-5
-20
6
29
14
2
-8
22
23
36
2
32
13
-12
48
25
34
30
-16
-19
-29
-15
-11
-9
0
-18
30
4
23
-5
-14
-12
5
2
-1
34
-19
20
6
25
2
42
-7
-15
14
-8
19
-5
-2
22
34
-9
-2
-28
10
29
-7
-1
-6
8
15
-25
-13
-20
5
7
-23
-9
10
-8
-1
-35
0
-13
-22
-15
-10
-28
-1
-35
-11
-16
-4
-4
2
-3
-11
20
-22
-12
-12
-28
-35
-34
-20
-7
-27
7
-23
-15
-19
-28
-10
-32
9
-29
-9
-17
-29
-31
-1
2
12
-14
8
-20
-8
-16
12
2
-14
-25
23
-3
-19
4
7
-8
-1
-1
11
-8
-9
-31
0
5
-12
-35
-33
-8
14
6
-19
-13
0
8
7
-33
-4
3
-4
6
7
5
-22
-11
-16
-19
7
15
-19
2
-6
-18
3
-25
-2
-26
-30
-3
15
-30
10
-15
-18
-22
-25
-23
-3
12
-4
-36
20
10
0
-12
13
42
-29
-48
7
-24
-9
-26
-17
8
22
-8
23
6
2
-6
28
29
-23
20
-31
-44
-9
-1
6
14
24
10
5
-19
27
5
2
4
0
-27
-1
-24
-18
-34
-7
0
3
9
0
-20
5
2
-21
14
-16
3
31
5
3
15
-6
1
-1
-7
27
1
1
-28
6
-7
24
-13
7
22
-32
-18
18
-9
0
8
10
-8
6
34
-7
-24
-19
7
-5
11
-3
24
-17
41
-27
26
28
-9
-33
-30
-12
4
-41
15
6
-7
4
34
-3
17
3
48
-19
-14
-4
-23
-5
33
22
17
-4
38
36
-20
-17
8
34
3
-16
2
15
-26
-5
12
-8
33
10
-9
-1
-14
-9
34
20
-34
11
-64
16
10
-2
-18
13
-16
-18
22
19
-21
-8
6
7
18
-9
5
5
10
3
5
12
15
7
6
-10
2
64
29
-26
22
-9
-18
-1
8
-11
-22
-9
5
-14
7
-12
-17
-1
28
11
-23
-12
36
-2
7
13
6
-23
-1
1
-28
7
15
22
-4
0
-3
-27
5
-6
12
3
21
-28
22
18
7
12
34
24
37
-12
41
8
-24
21
24
14
3
35
-22
-2
-12
6
13
-3
-11
18
-4
-22
-7
31
4
-4
4
5
9
-6
30
-26
-6
6
42
15
3
-33
-19
13
15
17
14
-20
29
-16
14
34
4
0
26
3
31
41
22
33
31
-8
32
9
-13
36
-6
20
24
51
-6
1
-2
-1
-22
-19
-16
-69
-6
-21
17
21
22
2
18
-4
23
27
4
-3
-20
22
-15
-12
-19
-25
6
-9
18
-33
-8
-7
-12
7
3
9
3
-6
-15
-1
21
-16
16
17
-7
-16
0
18
24
34
23
21
-6
-15
-25
-1
16
47
33
-20
7
28
12
13
32
-6
31
26
12
5
-28
-9
4
-6
-12
-35
-7
-11
2
-12
13
-16
-20
-11
-13
-10
-21
5
-12
0
0
-24
-35
5
6
-20
-8
-42
-23
-19
-9
-33
-21
1
-6
-17
3
-24
-10
-31
-13
-32
13
6
-36
-6
-19
-9
-34
-21
-8
-18
4
-22
-19
-21
4
-5
-4
-11
0
-18
-3
-25
-28
-32
-9
-27
-10
-11
-17
-15
-25
-14
-6
-7
-27
4
-4
-13
-22
-35
-5
-9
2
-1
21
2
0
-8
-3
-26
-27
-12
-3
-16
-11
6
-5
-40
-5
-6
-3
-20
-9
6
-2
10
-6
4
-21
-4
-7
-10
7
8
-24
6
15
12
-5
2
22
-17
-7
-11
-35
-13
-6
14
-18
3
4
3
-21
-11
43
-13
-14
21
1
9
-8
-18
0
-11
6
-24
9
29
25
-8
3
-10
9
3
28
26
-17
24
-21
24
36
-36
10
22
-23
-34
-13
-35
-26
-14
27
-2
-31
33
-5
57
18
-8
9
18
12
25
-15
-36
10
37
-11
-27
-10
-13
-4
-11
-13
6
12
-2
-44
-13
-22
40
-31
11
15
-22
17
76
42
1
-35
21
11
-17
-5
-7
1
-8
-34
3
-31
1
-27
3
2
-29
6
-3
-44
4
0
40
-26
-7
-29
-15
6
-18
-20
17
38
24
27
-24
25
-24
-18
-25
9
0
17
36
0
8
-13
-19
-10
23
-18
12
-5
-32
-7
22
-7
3
-11
4
43
6
49
-2
-19
4
1
-28
5
2
-28
-27
4
45
33
-13
-13
17
-24
33
-3
-23
18
-12
22
-30
8
-12
-1
106
-19
-4
-11
23
-37
-10
-7
-5
9
-11
28
-45
-17
2
31
12
19
20
-15
47
5
23
9
-10
-1
-1
-16
7
16
31
44
5
9
-5
-19
31
-6
29
-2
-37
-26
-40
-27
-5
-2
35
15
-32
-45
-59
-25
0
-8
-19
-8
12
-14
-21
-33
19
-30
-19
22
-16
-22
-12
-11
11
-8
15
-17
-14
8
40
40
2
51
3
10
-22
21
19
-14
13
-17
-11
-1
-16
22
-16
1
3
-29
-33
-34
9
33
10
-2
-25
3
17
-42
-10
-20
-33
21
20
16
-2
62
3
-35
8
-13
23
12
12
-23
0
9
12
32
1
22
-1
37
13
-30
40
3
-6
-26
-20
9
-36
-9
-18
-1
-19
17
34
-35
16
21
-5
-8
-5
-2
-23
-23
0
32
25
-23
-10
-21
33
-34
29
-24
27
3
-22
-37
-1
10
-28
-11
10
-4
-5
26
37
36
-18
34
28
-12
4
10
-7
4
21
-12
34
-21
8
2
-1
9
36
23
-15
-13
-22
-15
-30
-14
-30
21
3
33
-6
-21
19
-36
6
-23
1
21
6
48
41
4
6
28
32
13
5
7
0
47
14
-6
-2
-31
29
20
0
-13
14
-26
25
12
-1
2
14
-29
-26
-11
15
-20
19
-15
22
10
26
23
4
-18
38
-2
21
-9
0
37
6
26
-14
-22
-19
26
13
4
20
11
37
0
-23
0
-30
18
6
29
38
-5
-3
7
-4
-12
21
-12
-7
-25
7
-21
-1
16
19
0
27
12
-15
16
6
-4
7
18
7
16
15
-14
-16
-11
-16
-14
-2
-32
-10
6
-22
-6
-22
-14
-7
-17
3
28
10
8
0
8
-24
-23
-13
-9
23
7
-34
32
5
75
25
-3
13
11
-9
4
-34
13
1
-20
20
11
-22
-10
-5
9
-14
20
16
11
10
3
-25
-23
5
-9
-5
-3
7
-5
-10
7
13
28
20
24
48
-22
-7
-11
10
4
-17
-12
-21
7
-13
-18
-15
-31
13
10
3
-3
12
-2
-4
4
-13
-13
23
6
10
12
19
-8
14
-36
36
14
6
14
18
-47
18
23
23
-13
-16
-5
27
-13
0
34
8
23
27
5
-13
-1
-9
21
22
29
-18
-8
-3
1
32
25
-21
-42
24
-10
9
-9
5
-21
-8
28
-18
-5
3
-8
23
-17
-14
11
33
-17
30
-4
17
-4
26
-26
-83
39
-17
51
-12
-6
14
-26
9
16
-4
-16
12
-5
15
14
9
-17
-14
0
9
-18
-5
-26
19
-15
-11
-19
-16
4
-21
14
6
28
7
6
4
-12
2
-1
4
24
16
30
-28
20
12
8
3
-4
-7
-7
-13
20
-8
0
-11
-19
23
26
13
37
0
21
12
-12
-13
42
-15
23
34
-17
-17
-6
-9
-1
1
8
16
-11
-1
19
-11
-14
12
-5
-34
8
12
-12
-21
10
15
32
0
-12
-4
-2
0
-5
6
-4
23
21
38
19
8
0
4
15
21
-14
4
21
16
10
7
-14
-17
37
2
19
-17
32
13
-9
-18
-7
-27
9
3
-7
-12
2
19
-6
28
40
17
-31
13
15
6
11
30
14
-16
-15
-2
27
1
11
11
-16
3
8
15
6
20
-40
22
26
23
-30
-15
16
7
-16
-5
34
-9
-11
-4
-34
-19
15
44
25
-7
-14
15
21
-19
0
11
25
-28
0
-13
19
-36
-16
36
-3
-23
-8
11
-6
-30
20
-6
-13
-20
-26
-7
-29
20
-4
6
-18
15
21
-3
51
-6
9
5
1
9
-3
-16
-1
27
19
21
-12
39
-8
13
-41
34
-2
-2
-16
31
5
17
24
31
-30
-51
-7
-15
-19
-19
-38
2
29
23
5
-27
-16
7
-24
16
31
-23
-8
-1
-20
23
-6
-4
2
-6
-6
-7
6
1
33
-2
-31
31
1
31
-17
19
-18
12
34
-9
26
37
-10
-2
17
9
0
38
7
36
42
-35
-22
-5
-22
-43
-22
19
14
-2
-5
-13
14
-5
0
14
12
10
22
1
0
-22
-8
-23
9
-4
3
-18
3
-14
-17
27
8
4
20
-12
-10
37
26
11
15
22
23
7
-37
37
-25
-11
13
2
39
9
-34
13
48
22
3
-1
-35
12
43
-6
31
-27
21
20
5
-9
95
44
14
-8
21
29
33
-7
-49
-3
25
35
-25
-32
21
14
-6
35
0
21
-2
16
6
-10
28
11
2
-15
26
32
17
18
14
17
-10
-1
24
32
34
7
-32
7
11
30
-10
-12
-28
14
22
10
9
38
23
11
-18
-17
29
16
22
37
14
-7
27
-5
21
6
6
-8
21
37
-7
-27
42
37
-11
30
0
36
8
0
39
-13
35
-13
0
-11
7
-9
6
-30
-20
-30
-4
1
9
-9
-22
-28
-19
-12
-12
0
-27
-13
-5
0
-29
-7
-14
-21
4
6
-12
0
6
-30
-29
-36
-30
-12
6
-32
-16
-17
-12
9
-2
-19
0
-2
-4
-31
5
0
-4
-18
5
-7
-38
-35
4
-34
-15
-1
13
11
3
-35
-35
-8
-25
0
-13
-13
-19
-5
-23
-6
-28
-9
-15
0
-13
5
-23
-13
-18
17
15
-1
-22
13
-21
-21
2
-5
-15
-34
-14
-23
-23
-13
-35
7
-37
-15
-18
-24
-13
18
-21
0
-13
-22
7
-23
-25
-23
-12
0
0
-28
0
-1
12
-3
-4
-27
2
11
-5
-17
28
-20
-50
30
49
2
30
38
34
0
23
16
21
0
15
-22
17
1
30
-19
-19
-31
10
-9
-11
17
-1
6
-7
-22
-9
19
21
26
-15
-36
26
5
12
-4
57
-8
-13
-7
-22
13
3
18
-2
-57
37
9
-14
3
10
-11
-11
10
13
3
28
-15
33
13
1
-13
-21
-18
3
23
-1
26
-19
-19
0
-5
23
0
13
-31
7
19
15
25
8
-3
-2
9
-10
13
-13
16
9
16
24
-27
5
-22
21
47
-18
12
-7
-8
15
4
-10
14
-23
51
-11
-10
-17
16
-16
2
-6
-10
6
-20
-20
-34
-22
-18
-13
0
-15
4
-30
15
6
-24
-7
-14
-8
-15
5
-30
-4
0
5
-5
-7
-28
19
-8
-6
-6
-11
18
-16
-17
-18
-16
-14
0
-25
-22
-20
-7
-8
6
-10
-21
-32
-15
-16
19
-16
-10
7
-1
2
-9
-31
-13
1
-9
-9
-27
17
-14
-25
-20
-8
22
-12
4
0
-6
-18
-3
-7
-14
-3
9
-14
-12
4
-1
-24
-21
-21
-19
2
-16
5
18
-24
-8
-19
-26
9
9
-11
-12
-16
2
-2
-20
-26
-23
-18
-24
1
3
0
20
-21
-30
-22
-21
17
13
15
-19
3
-21
-31
-14
0
10
34
-14
-27
-17
-7
-19
-5
-16
-18
-29
-25
-32
0
-2
-1
-47
22
-14
-9
-6
-11
-3
13
5
-45
-29
7
-13
1
-5
-2
8
29
-8
-38
-25
-41
-11
-9
-17
-21
-22
-1
-1
-5
-15
16
-22
-21
21
0
-19
-35
-27
-36
-19
-3
-1
6
-12
-32
-17
4
3
15
15
-40
30
-33
3
-16
-1
-22
-24
4
-11
-8
0
9
0
-13
-31
-5
-22
-18
12
-32
-5
0
-30
-20
3
-20
19
6
-21
-14
-4
-38
12
-4
-10
-27
6
-23
3
-2
3
-21
10
15
-13
-21
19
4
-12
1
-5
-6
18
-28
-12
33
8
0
15
-12
4
11
11
-32
14
9
14
6
-22
-9
8
30
-13
-23
-2
19
20
31
24
55
55
-4
-30
-18
11
-16
1
-7
-12
3
22
18
23
15
18
-6
14
30
10
-13
28
-4
19
43
-10
-1
-14
7
21
-8
15
12
-5
-26
4
9
-14
17
-10
20
17
-19
7
-30
-3
12
-13
-1
7
-8
-14
-30
-12
-17
-19
2
5
8
6
-21
30
-27
-13
-25
-37
-4
22
8
-7
-55
-12
23
19
-4
-20
3
-16
8
21
17
20
8
17
31
10
-27
17
28
-36
-11
-1
26
13
-63
-27
-3
14
1
-14
60
-5
24
-26
-8
1
22
-2
0
-4
-5
-24
6
2
-9
-31
16
-10
-8
-29
-22
-19
11
45
-15
24
2
-28
-20
-22
-19
25
-36
-25
-7
-11
7
-6
17
21
-6
37
-31
-36
-15
21
2
13
-27
-4
29
6
34
12
21
-5
31
5
13
-25
-5
24
-14
-2
-12
21
-8
8
-18
-1
-1
34
-3
23
10
22
4
-11
33
5
5
9
-7
21
-12
24
27
-17
11
-17
31
11
-26
-13
10
31
-38
24
-12
-20
-24
22
-10
33
-9
31
-22
-6
24
-10
35
19
7
-21
7
-19
-41
21
8
-17
-17
16
-20
11
29
6
17
10
0
8
22
10
-28
0
-35
19
-1
-5
2
27
-8
-34
0
-25
-8
8
0
23
-13
-32
-7
31
-35
-27
22
-17
25
-17
13
3
7
51
-25
0
-16
-1
-37
-3
-30
-3
5
-41
0
-9
-3
-6
21
17
28
-11
-14
14
39
-6
32
-25
6
18
-18
8
-10
10
-6
20
0
12
21
8
-12
0
7
-16
21
-32
0
32
-1
25
22
-25
11
-24
-20
8
1
-6
-27
14
8
-32
13
36
-1
5
0
-18
-20
12
-20
22
7
0
-21
-28
-2
0
49
-18
9
2
10
18
5
13
-23
12
33
0
7
-8
10
-9
30
22
-3
-30
-15
-16
-10
-7
20
92
-10
-13
-21
1
7
14
6
-6
18
14
28
29
0
-2
-14
47
26
-4
-5
6
7
-11
27
-11
30
0
17
-6
-30
27
-20
2
-36
0
0
0
20
-4
22
-14
25
13
-7
21
0
-29
1
3
-22
10
-3
16
0
16
1
29
9
-2
19
0
-21
-1
-33
-34
18
3
-14
-6
-35
-17
35
-19
11
-4
26
9
42
12
28
7
35
-17
13
-18
20
14
-8
28
-26
-3
-3
8
-19
-6
18
14
7
-9
13
8
-9
10
-1
15
-26
11
1
26
-4
-33
-2
8
2
31
-22
15
-9
-5
21
42
-23
39
1
29
8
12
1
17
-22
19
31
2
12
26
-1
-18
-21
0
-13
-10
28
-2
9
20
32
38
-13
6
-3
44
-8
-9
15
15
-9
-10
21
4
15
-23
3
-21
-17
26
-20
9
-4
-22
-10
71
16
21
4
36
-3
-1
-14
6
-24
8
3
15
9
25
17
2
-21
2
8
44
2
-3
-1
26
-9
-11
0
-9
-26
-43
-15
0
-7
20
-5
31
-18
22
-24
17
23
-11
-3
-32
19
-2
18
4
-31
-18
-12
-12
-4
22
-32
-21
-18
-1
-37
-16
24
1
0
17
7
27
33
18
-13
-15
0
0
-7
5
-33
-16
34
23
33
-29
-1
3
2
25
0
11
-11
28
-23
4
-5
-1
21
-9
7
22
20
20
25
23
-4
-13
-7
3
-20
5
-8
-34
19
8
4
26
-9
6
10
7
0
-32
-32
1
-34
-9
10
28
-12
-21
-6
28
-26
28
0
18
-12
10
5
-10
-26
-1
21
-28
19
-10
27
-16
6
1
8
7
-4
9
23
-21
25
-1
6
-2
-17
8
2
3
18
41
12
13
30
1
12
2
22
12
33
-6
2
2
26
-11
11
6
-12
17
48
1
81
-18
7
23
-6
2
11
-75
-9
-1
16
37
2
-14
15
47
3
-16
39
14
-5
16
19
12
10
-8
14
-55
-25
14
22
15
43
4
17
-1
21
35
5
15
-26
-7
-16
35
-18
-16
49
23
-18
11
15
0
10
13
21
10
8
11
53
-6
31
0
-26
24
-12
12
-2
23
13
39
4
-8
2
17
-11
-1
-27
17
10
-3
14
-20
-8
-26
25
-3
37
13
38
-8
20
11
-10
21
-3
-12
28
37
0
1
-7
-9
34
4
25
0
3
11
31
12
-24
30
-16
-25
-11
9
-5
-16
29
-15
-8
-48
19
9
18
-3
10
27
-28
-14
-11
0
5
22
64
11
-10
-21
-1
32
-2
-23
2
-43
18
0
-11
16
7
-3
-5
-11
-14
-19
29
-26
3
1
-8
-4
15
-19
-14
9
-15
-70
-1
0
38
-1
-6
31
-10
-20
-8
-12
-9
44
29
20
29
0
-12
1
-8
-9
18
12
4
-1
-10
-32
6
-6
42
3
2
21
35
-13
10
24
-7
10
5
8
-1
12
22
-5
4
6
6
-14
18
34
8
-5
0
4
36
-7
11
-3
-8
9
22
10
22
9
2
1
30
26
16
2
2
2
11
-18
60
4
-6
15
10
-2
9
-65
42
-8
22
3
30
19
-12
3
-7
7
3
10
-1
5
21
-13
23
-29
0
-4
21
-34
21
5
15
18
-28
1
-2
-40
4
-27
-10
11
29
2
27
18
-10
23
-14
11
-14
-30
36
8
12
3
-14
2
30
22
6
8
-12
-3
24
36
-28
3
-20
-24
0
-9
6
14
0
-30
21
-29
-8
34
-16
-24
20
19
23
-35
-23
-37
-3
18
-7
33
-28
8
9
5
0
-28
12
11
-2
-32
-94
5
-39
23
3
0
-11
7
-6
-7
18
-7
0
-2
2
27
11
-2
58
-1
6
9
13
-17
-5
-9
-15
-4
-7
-1
-12
-33
0
-3
20
22
-15
1
7
-6
2
34
11
27
0
34
-3
28
4
6
8
28
-30
-5
14
8
3
3
-22
16
37
0
3
2
36
17
-30
19
-34
11
23
-18
-4
-19
-20
4
16
-5
12
29
-5
39
17
16
-19
8
-19
16
-8
0
22
-29
-22
-21
5
-20
-30
25
2
-11
-13
10
0
-23
-13
-13
-20
4
13
-3
-13
-7
-1
-15
-17
-25
14
-11
0
-21
82
-19
3
33
16
-9
21
-3
28
-3
-8
-27
-11
4
38
32
-8
-5
51
-18
12
26
6
8
-3
5
11
-8
-12
4
11
10
-12
-23
14
28
-13
0
-2
-2
2
31
15
2
36
28
38
1
27
-20
15
13
8
15
-12
3
0
2
-19
13
25
-6
0
6
-12
4
-3
36
-23
-7
-6
0
-6
22
9
-9
-23
-6
-29
5
2
12
21
1
-9
29
-3
-26
-21
13
-7
37
-13
5
22
-28
7
35
-24
-17
-10
27
2
6
-24
3
-20
8
-14
3
-13
21
28
22
-24
-3
9
-12
27
-3
34
-8
14
31
-5
-12
-8
26
38
-10
-2
-8
7
12
20
23
-21
12
-24
37
33
9
-18
4
-2
-4
15
15
12
7
-29
9
13
-27
20
-7
14
3
-3
33
26
-9
30
-27
1
34
52
25
16
-30
24
5
-28
-1
-8
-2
-13
-18
43
8
26
7
-2
41
12
14
28
11
-1
-9
0
-23
4
14
2
-32
-21
0
-19
-1
-12
-7
24
22
-16
5
-26
-1
21
-3
25
12
13
10
26
-15
5
39
-22
5
20
-5
-8
-30
-20
-25
-13
19
-14
0
35
-2
-5
-28
14
29
-21
-12
-15
-1
-36
11
1
34
-3
21
-10
-31
-37
-13
30
-14
13
-37
-29
5
-14
4
-32
-26
-14
-25
3
0
-20
-5
11
9
-24
2
-8
31
5
-7
-5
-6
2
-30
-3
-16
-36
-18
-32
-27
-29
4
11
-1
2
-2
-20
-4
-11
-21
-14
12
-31
-11
-6
-34
4
-36
14
6
-13
-1
-10
-31
-19
-21
-5
7
-13
20
-8
-17
-37
0
-27
-10
-17
-23
17
-9
-23
-6
0
7
25
0
-3
-10
-16
-2
0
14
-31
7
5
-11
0
-33
15
9
-30
35
-10
16
18
-3
6
-6
-7
-9
-35
0
-1
39
11
-7
-24
22
-42
5
28
16
22
-13
24
-26
24
6
31
-15
-19
-2
49
21
34
-47
2
13
0
-19
5
-33
33
13
30
7
-2
-23
-35
-15
-33
17
-15
-6
0
5
9
0
5
5
26
-15
-26
-31
0
-4
15
-3
-20
17
44
-17
27
-3
-26
0
20
16
23
-10
-3
45
-19
10
-22
-32
33
19
18
-4
-2
11
6
-1
5
4
16
25
23
35
13
-29
4
-10
14
28
-6
-11
11
2
-16
-18
-26
-8
6
19
-11
-18
-42
-23
0
-3
-2
-7
16
-7
-28
-15
-18
35
-18
-22
-34
-26
-8
-19
18
-37
21
-7
-2
-18
-22
26
2
38
-37
-22
-23
14
-18
16
-29
2
-36
0
1
-21
36
34
17
-1
-33
-8
-11
-5
6
-12
30
41
14
1
4
3
6
13
-8
32
1
-37
-11
-39
34
37
19
2
0
1
34
22
-20
0
-26
-30
-8
24
-28
11
6
-1
-11
-23
23
32
-18
39
17
-30
-1
31
-28
-20
20
-31
-21
3
-2
-42
19
-12
-13
15
-25
13
-11
30
0
-6
-22
31
-16
-39
-16
9
-6
5
30
31
33
-38
18
-27
-6
35
20
-29
-13
-1
37
-20
46
-45
12
26
-23
-26
27
24
30
-24
40
23
44
-12
31
-8
8
-31
18
10
27
-16
-19
5
23
2
-16
-14
-39
14
13
49
-5
9
0
16
31
-24
15
0
-30
20
-27
-40
1
-7
-25
-18
-19
-3
4
18
-14
-21
-9
12
9
22
-33
-3
44
35
1
15
37
-8
27
27
3
38
-26
3
-13
-23
37
14
-35
-5
-10
0
30
11
24
-6
25
23
35
17
-9
2
-10
-12
-2
16
26
49
6
-16
24
34
19
35
9
37
-18
65
-43
3
-15
-5
2
28
-34
9
-13
-24
5
-15
-10
-13
21
1
-14
5
4
9
-17
-4
9
-22
-28
20
-16
15
-6
3
-6
-25
-4
-17
-34
-25
-5
-22
-35
-18
13
-7
-18
2
-5
-7
-14
-17
-10
2
-4
-9
-9
-19
3
-29
-23
-6
-5
22
-10
-4
-7
11
-19
-12
7
-1
12
-22
-4
19
-5
-19
-16
-22
-11
-37
-9
6
6
3
-13
-16
-5
20
-32
4
-16
0
-14
0
-7
-3
3
16
-33
-30
-16
-8
-18
-1
11
4
-20
-14
-19
-32
-20
-18
-12
-16
-1
19
-20
0
-21
-30
6
13
-15
2
9
-23
-25
0
9
-12
-24
2
12
-19
27
-3
4
7
-19
-13
-4
6
8
-12
27
43
18
2
1
1
-6
4
11
-9
-11
6
38
4
-13
7
-20
32
-28
24
5
29
-12
7
21
31
-4
0
30
14
-2
-29
12
-32
42
38
7
-1
-19
32
14
-15
2
-62
39
5
5
-36
21
-4
2
-13
-36
16
-14
6
32
19
-18
0
-8
24
-13
10
26
19
-3
0
-33
3
12
-23
-29
-6
-33
19
22
-4
-11
-5
8
-2
22
32
-17
26
14
22
-35
-7
-21
22
30
7
29
9
-23
-4
10
-9
29
35
-2
-15
21
-4
11
33
7
32
30
-32
-15
-13
3
-8
1
5
-2
-28
11
-16
-1
13
12
12
48
-37
-12
22
-10
2
32
-31
-26
13
-71
10
-3
-2
-6
20
-67
-15
18
0
-4
7
15
1
-5
-34
-4
5
0
1
6
25
40
-47
6
-8
24
38
2
7
-26
8
-18
-26
-1
20
14
-12
36
34
41
0
8
19
4
8
9
-15
-14
-11
60
7
-6
10
-1
-16
-10
-32
18
0
49
25
14
-66
-3
37
0
-6
12
8
30
16
15
17
51
-13
31
39
7
-45
43
9
15
20
-19
12
-32
-20
-22
-17
-1
-2
-23
1
-1
11
-51
-22
18
-7
-6
2
2
26
-16
-29
31
2
-4
13
-8
-17
-48
-18
-21
15
-14
-45
42
31
30
13
4
-3
15
30
28
-1
16
30
-5
27
-9
-26
-19
0
-14
7
36
7
-8
0
22
-31
-47
1
-22
-26
6
10
6
-10
16
16
5
29
23
46
2
-4
-12
6
-10
5
-37
-22
13
-27
-15
2
-30
43
6
-13
2
-15
-5
-4
1
0
6
40
-20
-35
-31
11
-13
1
-14
43
-18
-8
-33
-38
-17
-35
-6
34
-23
-39
19
36
-19
-15
28
-14
-22
-45
19
-11
17
-27
32
-4
9
-4
30
37
1
32
-14
13
21
0
30
25
31
-25
31
-17
-9
-12
-26
7
-27
2
36
26
-12
-29
-52
3
3
2
-25
-6
-56
31
-5
-5
-25
2
-3
29
17
-18
-8
-20
28
9
-5
-7
1
-17
0
15
-2
-42
8
28
-17
-30
0
0
-17
11
15
14
-38
35
23
3
-27
-28
-28
-16
25
6
0
-23
36
0
-19
8
9
-16
-6
21
17
-3
36
3
20
-24
-1
-32
-14
-8
45
17
27
-17
6
-5
38
-7
26
24
8
-16
22
33
13
-3
0
5
-12
-27
14
-33
-9
-24
-6
32
29
-21
22
12
-9
0
-12
0
13
11
31
21
5
-18
0
-10
35
-9
7
5
-2
23
-20
16
18
23
-8
27
-24
2
17
0
-6
-1
13
23
15
-10
-13
-4
0
-6
16
7
36
24
15
-6
4
2
-1
-4
-19
10
-6
-31
14
3
-18
-25
17
-3
-12
9
-8
17
7
14
-9
-23
19
-25
-14
-10
38
-12
7
-24
-37
16
7
-33
-1
-19
-31
7
20
8
-6
13
29
-37
38
7
18
35
24
15
-2
-5
32
1
20
10
26
13
-2
-16
2
-29
11
2
-17
10
21
17
-29
-15
13
0
10
25
-5
28
-6
-16
62
12
-12
34
3
12
-24
31
25
-8
-31
12
40
-12
38
14
15
48
-25
-33
-21
-33
15
18
1
-16
5
38
19
12
-4
-19
13
11
-18
-10
7
-1
10
0
27
13
-8
-4
9
-4
34
-55
22
-6
21
1
5
-20
22
-31
-1
-8
16
14
-54
-29
-6
1
7
2
-35
-1
-16
38
-15
-30
4
32
15
23
-1
13
-28
14
-15
-31
15
-11
-17
-8
36
4
18
-29
14
-15
21
22
-10
1
22
-38
26
13
-38
-25
30
-19
15
21
30
-40
-2
-22
0
5
7
-10
-121
-9
33
-29
-7
29
71
9
11
-51
-52
-43
40
-36
-4
6
-15
3
70
3
-30
-14
18
3
-28
-9
23
33
8
-2
109
-12
72
118
53
-28
9
11
19
20
-94
6
-1
-4
-25
-27
7
-55
-85
54
-11
-6
33
79
-54
-1
-11
30
35
-51
47
-1
0
68
-12
-26
-11
-3
43
-20
0
34
-77
97
3
24
-35
109
-16
-1
13
-1
-13
-12
-42
27
-48
-69
-4
42
68
-3
4
-139
26
65
27
-34
-22
27
-107
23
-28
38
22
21
-43
15
37
2
39
0
51
26
35
-10
-12
-7
-14
-19
-9
-29
-35
-17
-6
1
-8
-29
9
6
-20
0
1
12
-33
-33
-20
-28
-30
-19
-1
-25
-4
-24
10
-23
-3
-4
-4
-3
0
-36
2
-22
-18
0
-10
-25
11
-13
0
-28
-11
4
-28
-32
-25
-36
3
-8
-16
-16
-11
25
-6
0
-1
16
0
2
-10
-24
1
6
-5
-4
-28
-27
-5
-4
17
-29
5
-20
1
-11
-5
-26
5
7
21
8
-23
-5
-19
-24
-3
-11
-34
-31
1
-10
0
-26
-26
-26
3
-7
0
0
-19
-2
-35
-26
-4
-10
-1
-19
0
-33
-31
20
-14
22
-27
-6
-11
1
-11
29
-9
6
-22
18
-1
37
54
1
-38
2
-2
11
-3
-24
12
-6
1
0
-7
17
-8
17
-13
6
-5
9
-39
3
11
-29
-9
-13
-15
-14
23
29
-16
0
26
0
-22
-25
-17
-6
9
11
-37
29
30
11
-6
-7
-8
-55
33
33
-27
8
-14
-13
-7
-5
-8
-7
4
20
25
19
4
17
0
30
31
-15
1
16
15
5
-33
6
15
32
3
46
24
-8
0
9
-11
-36
-27
24
23
-18
12
-7
-9
9
-38
-3
-22
-3
6
11
25
14
10
-1
13
-8
-20
-16
23
-49
-11
-3
-3
-19
-22
4
-9
-24
15
-23
22
27
-18
0
30
24
-34
-19
45
-6
45
10
26
-19
9
-9
-10
-11
6
-7
29
-22
46
12
-8
-16
28
0
25
131
11
33
32
32
-27
22
-10
29
-4
7
20
20
-2
-18
-21
16
-20
-12
-14
-20
-27
10
-6
18
13
10
40
-5
22
34
8
-7
17
15
22
2
-1
0
1
-5
-1
12
7
3
2
5
0
0
-20
-5
4
11
11
14
23
41
26
19
-13
4
-8
57
8
9
12
-22
13
8
10
58
-11
21
15
55
-17
11
2
-10
-1
47
5
42
6
26
7
17
7
24
10
6
27
-36
-34
-13
62
10
-2
37
29
29
-23
1
-2
15
5
-7
23
-2
24
10
-3
-21
-2
-24
6
-2
-16
12
-17
-32
-21
21
-53
-19
-28
3
38
-18
-15
7
-6
-43
-38
28
1
11
13
28
-2
91
30
9
3
2
16
16
-28
11
14
-15
8
-21
4
10
-2
16
5
30
-10
-2
6
5
4
11
0
-11
-21
-34
-3
-2
2
0
-18
14
-7
-44
17
4
-3
9
-30
10
-14
36
-4
18
-14
41
2
0
-25
36
-18
32
25
14
-4
-27
-26
-18
-14
-32
-21
-2
32
-23
7
-5
33
1
-23
-19
8
-6
-27
-35
-24
-33
-15
-35
6
-19
-26
-11
-28
-12
-11
-36
-18
-33
8
16
-14
-31
30
3
-34
-2
8
-10
7
15
0
-37
9
1
-20
-1
-32
-4
-38
0
4
-2
-5
9
-26
11
-6
-29
-19
-37
-29
-22
-26
-29
4
-2
36
19
-16
-3
-26
-36
-8
7
10
2
24
0
-34
-4
-28
-14
7
22
18
37
2
-15
-35
-20
12
-16
0
2
-34
-10
18
1
-12
6
33
-10
-9
-7
-6
0
-37
-8
-14
-21
38
14
2
-12
-12
-6
19
-2
10
18
-8
29
-22
26
-3
-2
-14
-5
3
1
7
-43
21
1
-22
31
31
5
-1
27
35
-18
-17
9
27
28
13
7
8
32
56
-10
-26
-26
-32
1
-15
5
25
40
23
2
10
-11
2
-19
-6
18
-20
-31
-11
30
12
23
24
26
-2
-18
33
2
-17
18
34
19
-32
11
29
-17
36
-14
12
1
-2
33
-7
-15
-2
1
-15
10
5
-7
2
-23
10
-12
13
-26
18
-29
-13
14
8
-12
-7
21
-6
10
-22
-16
2
14
-2
-17
0
16
27
-19
-11
15
14
-5
-6
22
3
4
1
-2
18
-7
19
0
3
8
13
14
44
24
-1
-31
-35
0
-17
-8
-11
-20
-38
-29
-15
4
-18
10
-12
4
2
-21
-9
43
-13
-4
-5
-10
33
3
-8
-2
8
25
-52
-51
13
-27
4
2
17
-13
40
-20
-46
25
16
-18
8
35
25
-27
-14
70
-14
16
32
-21
-14
-28
26
13
-5
-26
-13
32
29
-2
-17
14
21
-14
-44
-41
41
-2
48
12
0
6
-6
30
1
-43
-48
-18
-6
-15
25
15
5
22
40
42
0
-15
-19
-30
-1
-2
28
1
-7
-57
29
2
-5
-37
1
10
-3
-29
8
22
-27
-17
-15
-23
4
-17
8
-24
-33
-5
-4
-10
20
18
-20
-22
-4
-14
-26
8
-22
-10
-28
-11
-4
-4
6
-12
-31
-11
1
-9
-31
3
-34
1
27
-27
-23
-24
-20
8
-38
-22
18
-24
15
-33
-3
-16
-16
37
-35
14
-7
-9
-32
6
-27
0
8
-23
-23
-33
-18
-17
-30
-22
-19
-5
-34
7
2
-12
-17
-32
32
6
-2
4
-17
-35
6
-16
1
1
10
-1
-9
13
-24
-22
1
0
7
2
30
-24
10
0
-33
-4
5
-9
2
-31
2
-17
-5
0
0
-6
26
-33
-2
-12
-31
-6
8
35
-19
9
-40
6
-1
-31
-23
-3
3
-47
-7
-6
0
0
-25
8
-42
28
-25
-4
-101
34
-20
-33
90
-35
-12
-25
38
0
-14
15
2
-68
-38
-2
12
18
72
-17
-23
4
9
30
-17
6
10
60
-3
16
16
21
-13
-27
-10
-57
6
-38
10
-33
-41
-10
2
2
27
-14
72
-34
-16
53
21
-64
-44
32
-48
-9
-5
-1
43
-18
-13
-10
-30
33
-9
3
11
-5
2
6
21
1
4
8
-65
13
-54
-18
-69
29
-3
20
28
18
-17
-17
-15
21
-33
58
-7
7
-5
30
-2
-37
28
24
7
64
43
25
-3
17
-31
-13
4
-17
-14
-10
-15
-4
-14
-23
43
29
-11
39
-6
34
-13
22
18
-5
3
-26
31
11
-8
21
2
22
33
-27
12
4
-10
21
11
-37
-14
13
11
22
11
11
31
-9
14
38
-12
-5
-16
-9
15
22
21
-10
8
31
35
5
22
24
0
-10
7
4
-10
-17
15
-38
-15
10
31
37
-38
17
-23
20
-10
27
2
26
17
4
16
-12
0
2
8
34
-8
17
10
13
11
-15
-23
14
-8
-3
-12
2
5
-2
-22
-11
18
-36
-28
-1
5
-30
26
19
24
17
6
11
5
-12
-12
-8
5
-6
-11
-4
-12
4
-2
-24
22
-12
-9
-26
-10
-21
7
-3
9
-5
7
-28
-12
-18
-11
-16
-2
-34
20
-4
-13
-13
-7
16
-26
5
-23
-9
-6
-7
-28
-23
-14
-11
-14
-27
-19
-19
3
-21
14
4
-16
-22
-34
19
7
19
18
21
-13
3
-33
-17
5
1
0
-32
-21
-36
-14
-4
-3
11
9
-11
-22
7
-18
-14
-29
-11
21
11
16
7
3
-3
-5
-14
-28
-15
-5
3
-28
15
-27
-27
-2
-20
-30
6
19
22
4
8
0
-16
-16
-24
-7
-31
-35
-15
-5
-20
-26
-22
-22
19
-13
-11
12
-21
-32
-30
-9
-15
-7
-2
-18
3
8
-29
-2
-11
-17
-21
-2
-3
-7
-24
0
0
11
-31
7
-28
-23
-10
-22
-24
-13
-20
13
-28
22
20
5
-28
4
-15
17
0
-21
0
-2
10
17
-22
15
-26
-34
-33
-4
7
-12
-15
7
-16
7
-18
-31
-17
7
-9
-35
-12
-21
-12
3
-13
-9
11
3
-27
-11
-12
12
-4
-18
-1
14
21
12
-20
5
-23
-29
12
-29
-1
-13
-2
-22
21
-19
-31
-9
6
-36
-31
-4
1
-8
6
-1
-35
-25
6
5
1
0
10
-20
3
-27
-34
-14
2
21
-23
5
-28
-17
14
-2
3
-29
3
7
21
52
13
20
24
36
15
15
-19
6
23
26
-12
-2
15
21
20
-36
15
-35
-21
37
17
-24
-20
-1
-56
21
39
-26
3
26
11
10
-25
-22
4
18
-26
-10
-14
-17
-28
36
-30
-7
-12
40
-4
26
29
-26
28
-26
-23
-4
-2
30
-9
-24
29
-7
23
-28
36
0
15
-8
14
-26
-16
-4
7
-1
4
-31
60
31
0
7
7
-9
-22
3
3
-20
-28
-12
-20
-17
37
22
32
-8
-3
27
-35
7
31
-25
-4
17
0
22
0
6
0
17
-16
-1
-6
5
-2
-7
-39
37
18
-8
-10
-6
-12
-38
20
31
58
10
-5
17
-11
-16
-22
28
-49
-2
-7
99
28
-48
5
-60
-41
10
-14
3
-7
36
-50
-32
-17
-30
-93
16
-1
58
-18
-15
9
20
-42
8
-28
-33
-111
17
14
-8
-11
28
-12
-40
11
-37
-46
-12
23
-8
9
-6
-12
17
-1
-67
-7
-18
43
-45
-44
-2
5
-19
-25
-2
-22
13
7
-12
-29
-38
-19
0
-33
24
14
40
-8
-12
33
-3
-59
1
-19
-19
4
13
-10
6
-89
48
26
7
-1
-14
20
16
-22
10
66
-37
-7
-1
-12
0
6
-12
-2
-23
-5
-22
-32
-9
0
-15
-11
-5
-20
-35
-21
-16
-31
-21
-9
-22
-7
20
-33
-5
-31
-3
0
-3
4
13
11
-13
-26
-15
0
-22
-25
-26
0
7
-23
-5
9
-29
-17
9
-3
-16
-28
5
-34
8
7
-15
-14
-20
-6
-32
13
-22
-26
-9
19
-25
-16
-16
-31
-29
-18
-19
10
-16
-8
1
8
-26
-15
-7
-8
-17
2
10
-21
-5
0
7
19
-18
-12
-34
-9
-34
-22
1
-3
-24
-18
-13
2
-20
-11
-1
10
-15
-5
-33
-10
-12
-7
4
-4
5
-3
0
-10
-6
-9
-24
-37
-2
6
-8
-27
-10
-24
23
-6
3
-12
1
0
0
-34
9
-11
-13
-20
8
5
-5
14
11
3
-36
-8
11
-7
-4
-31
21
-25
-19
11
-13
-36
-19
20
-35
-21
4
27
-26
-18
-5
-29
4
-14
-21
-18
-14
-7
-30
1
16
-17
-2
-21
-11
-1
-25
-5
-12
0
25
-21
-10
-9
-14
-22
-9
-8
21
-18
-25
-21
-22
8
-16
21
-8
7
-22
-29
-20
13
4
-9
3
-3
14
-35
11
-21
2
-28
18
1
-9
30
-19
-10
-8
11
-3
-20
-27
-21
-31
-24
24
7
0
7
-23
-10
-3
2
30
26
32
30
-8
24
21
8
23
26
36
0
-23
1
7
6
14
23
-16
20
25
21
27
28
22
5
-23
31
-22
15
-61
0
16
25
14
-16
-64
-53
4
2
21
-22
37
15
5
-19
15
-25
-33
-15
9
8
38
-22
25
1
22
55
9
-23
29
-21
1
-7
-26
35
9
-11
4
34
4
-1
4
29
-35
24
-26
-3
20
34
28
-22
-7
5
-4
0
-30
74
-4
-5
-3
-23
3
-55
-21
18
5
17
32
-24
31
31
-7
21
35
4
24
-35
21
6
20
-19
16
36
-18
-7
10
-47
-2
-30
9
33
-5
-3
13
-26
-29
-6
21
-25
-17
1
-9
-18
2
-7
15
6
17
11
0
-18
-43
20
-33
22
-35
-39
-6
-10
12
21
-31
-29
21
25
-12
1
-4
15
0
-23
5
0
22
11
-16
-25
44
16
-27
-9
15
-10
-37
37
-30
12
-7
16
9
6
1
28
21
1
23
45
2
9
26
12
-34
18
4
-6
29
10
-10
-26
46
40
23
0
-18
-16
7
-10
23
-28
40
29
-24
-53
-16
1
3
26
21
18
-12
-11
0
3
14
-25
1
45
-17
-39
52
10
7
-30
16
6
-18
-1
6
-23
1
-10
-3
16
-6
4
6
-17
21
5
-7
-25
21
-17
-11
6
-32
11
-1
-17
0
1
-14
-3
-12
-14
-26
-13
15
-35
-5
-13
-22
-5
-26
-4
-20
8
-17
8
-31
-10
19
-9
4
-28
-29
18
-16
-29
-3
-19
1
-12
-16
-13
-23
-2
-22
-22
-20
-21
1
6
-4
-15
-31
7
-1
-31
-19
-30
-29
0
22
-12
0
6
3
-23
7
-12
0
0
-15
-9
13
-9
-20
-22
-24
-27
-28
-29
-16
20
3
-5
-30
-9
-28
-34
9
12
-22
-32
-27
-2
5
-18
-4
0
5
-7
-7
8
-6
0
-30
29
-31
11
8
26
22
-5
52
-5
20
29
2
-20
-39
32
0
-18
48
29
56
-10
8
-9
51
-23
10
-9
8
-20
21
-26
23
-13
-7
-10
0
-20
22
80
26
8
6
-5
17
0
-31
13
-19
28
-42
-30
-6
-5
1
24
-35
-7
19
9
-25
-5
1
28
-12
21
4
-4
27
-11
-7
22
-4
3
5
32
33
13
-28
15
-29
-32
33
-24
-18
-20
-8
19
27
26
1
2
7
17
40
37
-9
13
-5
6
41
37
26
14
9
0
33
-1
10
41
36
40
21
27
-52
-4
-21
-4
18
33
1
-26
-5
2
-37
0
-22
-11
-33
3
-24
-22
-4
-34
-37
-11
-2
-14
-31
30
12
-16
15
-14
-6
10
0
-33
0
-8
-10
-8
-29
-8
20
-23
6
20
-27
-2
-15
14
-29
15
-13
-22
-10
-2
-22
14
-27
-5
-5
16
-27
-29
-27
5
1
6
-16
-19
4
-8
-25
-3
-30
-10
-9
-7
-2
-5
8
-14
-1
-16
0
1
-4
1
-32
-32
-17
-28
1
-1
8
16
8
11
-5
1
-4
-30
-20
-10
11
-8
0
-34
-1
-32
-37
-4
-10
-21
-36
-15
-35
-6
-27
-27
-1
-29
-12
-6
12
-14
-9
-24
12;
