memory_initialization_radix = 10;
memory_initialization_vector=
-13
-6
-14
-11
2
-3
-17
-19
-27
-1
-22
-25
-14
-31
-3
-29
-14
-11
-8
-19
-16
-8
-12
-18
-28
-26
-13
0
-22
-2
-10
-1
-8
-15
-15
-20
-11
-2
-19
-21
-20
-9
-19
-6
-16
-8
-23
-6
-4
-6
-16
-13
-12
-13
-20
0
-7
0
-21
-9
-10
-11
-1
-26
-8
-5
-3
7
-22
-16
0
2
-14
-26
-10
4
-13
-31
-31
-18
6
-9
-27
-13
-12
-9
-9
-18
-29
-10
-17
-3
-26
-12
6
3
-1
-19
-16
-8
3
8
-30
-24
-2
4
4
-18
-22
0
-4
-4
-20
-11
-1
-6
-5
-17
-19
0
-16
-15
-17
-23
3
1
-18
1
-28
-25
5
-2
-9
-25
-11
0
-6
-7
-20
-15
-13
-10
-2
-28
-8
22
24
16
-24
-1
-3
-4
-24
3
-9
25
-5
-5
22
19
24
-8
-10
11
18
23
6
-10
27
23
25
-18
-22
18
23
13
-27
-7
-30
-20
7
0
3
-27
11
14
-19
-14
-18
10
0
-19
-30
-15
6
-14
-14
-29
-18
-12
-1
-7
-15
1
7
19
-5
7
-18
1
12
-13
-26
-24
-3
9
-18
-25
-5
19
4
-28
-26
-24
7
0
10
-25
-3
13
20
21
18
-10
13
6
26
15
-17
24
8
8
16
-10
10
13
7
-27
-6
7
2
-15
-16
-10
-8
11
-23
-11
-11
-22
-2
-11
-23
-17
0
2
-15
-16
-23
6
0
-27
-13
-9
2
-6
-16
0
-12
0
1
-7
-8
-25
-4
-15
-1
-10
-15
-7
-18
-15
-22
-12
2
-19
-8
-20
-21
-14
5
8
15
-26
-33
-5
-14
0
-4
-26
11
-6
-7
-23
9
9
-8
-8
-16
9
10
-20
6
-23
-17
-27
-17
-19
-30
-7
-6
-13
-33
-29
-21
-20
-11
-13
-34
-28
-8
-13
-14
-11
-12
-16
-18
-28
-34
-8
-11
16
-9
-10
-23
-3
-13
-13
-20
-13
-7
-22
-19
-9
-27
-3
-19
-31
-5
-7
-16
-15
-1
-22
-24
-8
-19
-6
-23
-4
-16
-1
-10
-9
0
-19
-11
-4
-18
-8
-19
-25
-15
-22
-2
-20
0
-15
-9
-19
8
-24
-39
-10
6
-8
-9
8
17
-2
-8
-16
-19
-10
-21
12
-29
-7
-17
-8
-16
-11
4
-27
-1
-5
2
-13
15
-1
-5
20
19
5
-12
-1
16
-3
-10
-6
-2
-1
-14
-3
-21
0
-5
-7
-1
-23
29
-13
-29
2
7
-9
-38
-31
-5
6
-20
-14
-37
-21
-13
14
9
-16
-13
-7
4
-21
-10
-5
-3
-17
-20
-25
-7
-6
-5
-29
-24
7
-25
-9
-15
2
4
-16
-4
-10
-23
-2
15
9
-21
-9
14
-11
1
-2
-3
-14
14
-12
-16
-20
0
-12
11
12
-6
1
-13
-18
-3
5
2
1
12
-24
-14
0
-15
8
3
-11
34
19
21
-4
-4
-14
-2
-4
-33
-25
-16
-10
0
2
-22
-14
-16
-4
2
9
-7
-20
-9
-23
-25
-2
8
-15
-3
12
24
-25
10
24
4
4
-13
16
-2
19
20
-26
-8
-18
8
23
12
3
22
-15
-38
1
9
13
-23
-18
-1
-14
-28
-22
-6
-1
-7
-16
8
19
14
-1
-28
-25
-9
10
-4
-9
0
-11
-22
-32
-38
-26
-32
-17
-15
-19
10
13
-22
-17
15
15
-4
-8
-22
-27
-17
8
20
27
26
2
-23
-10
9
14
7
-15
-2
2
-32
-29
-33
-7
-2
3
2
-19
1
15
-1
-12
-27
17
25
24
13
-13
-8
0
-13
-26
-24
-21
-13
-10
2
10
-5
-5
3
-5
6
-12
-19
-30
-14
-10
10
-19
-30
10
-29
-19
-18
-7
-20
-14
0
18
11
17
-2
15
-22
-23
-23
-18
0
-14
-26
-26
-5
-9
26
43
29
-12
-5
23
17
0
-25
19
4
-20
-23
-1
0
-12
-13
-21
-8
0
-14
-8
-5
-9
9
21
-22
-8
10
-6
-5
-24
-11
11
-20
-7
-15
-14
-3
-11
-35
-19
-19
-26
-41
-11
-22
-21
-38
-43
31
42
14
46
32
31
40
23
22
9
-9
20
10
22
7
-11
-32
8
-11
-24
-2
-12
-2
21
-21
-4
-8
-11
-22
0
-2
11
-2
-20
-22
-5
10
-18
14
19
-1
11
-23
-1
-4
9
-15
7
4
6
-5
-5
-25
15
-17
-3
-10
-7
-17
-8
-12
-25
-20
-28
-5
-13
-21
-16
-11
-11
-27
-15
-8
-21
-4
-9
-2
-10
20
-23
-13
-27
-16
-21
-25
-3
-23
-5
-24
-21
-3
-26
0
-19
-10
5
-17
-2
-9
3
-12
-10
-20
-22
-10
-8
23
-26
-11
-21
18
-7
-14
8
-14
-8
-8
-18
-24
-22
-6
-3
-9
-23
-14
-23
-20
-14
-14
-5
-23
-11
-12
-8
-6
-20
-6
-19
-10
-19
-5
-5
-14
-2
-26
-24
-4
-15
-8
-15
-9
-24
-6
-23
-3
-11
-16
-20
23
-14
14
5
-21
13
-4
-7
-16
-10
-8
-15
-20
-10
-18
-17
-17
-13
9
-22
-17
-4
-19
-7
-7
-5
-13
-25
-2
17
14
19
4
-8
26
21
-3
19
19
5
-4
-25
-21
3
-26
-15
-19
-24
-4
9
-21
-23
6
-15
13
6
5
25
-4
-3
-6
-7
-18
-16
6
-6
-22
-25
-6
-10
-27
-2
-23
-14
-14
-23
-16
-19
12
-17
-12
-13
-23
-19
-8
-3
-8
-5
-10
-25
-17
-25
-7
-13
-24
-9
-6
-26
-17
-6
-19
-25
-26
-8
-10
-22
-24
-15
-15
-9
-15
-22
-8
-21
-13
-24
-21
-8
-5
-22
-20
-7
-9
-10
-18
8
-15
-27
13
-7
2
-12
-21
-16
-7
11
-21
-25
-26
-11
4
-13
-3
-26
-26
-3
-11
-19
-6
-10
-20
-20
-10
-10
-13
-2
3
-17
-9
-2
-12
-10
-4
-27
-25
-9
-12
-3
-6
-12
-13
-9
-14
24
25
14
-27
-7
-18
-27
-15
-19
-6
-16
-10
-10
-20
-19
-13
-19
-21
-16
-2
-2
-11
-12
-25
-12
-6
23
26
19
-7
27
27
14
14
16
6
7
20
7
10
17
7
17
-23
-7
-9
-12
-12
-26
-16
-13
-21
-26
-5
-24
-15
-20
-16
-16
-21
-21
-7
-21
-15
-16
-5
-26
-19
-3
-4
-26
25
-14
-17
-10
-6
7
-16
22
22
-23
15
-9
6
16
5
6
-23
25
-26
-19
11
25
18
-4
-13
-14
5
11
-1
-6
-8
-26
-18
-27
-4
-22
-8
-22
13
-9
-16
-18
-21
-9
10
-9
-6
0
-23
-20
-22
-12
-20
-7
-24
-12
-25
-22
-5
-9
-8
-12
-28
-14
-17
-18
-22
-24
-16
-15
-19
-18
-20
6
-19
-4
-8
-3
-10
-22
-21
-6
21
7
8
-4
13
-22
12
0
11
1
-7
12
-8
10
-2
3
-25
-17
-5
-26
-6
18
-23
4
-6
7
-3
-18
16
-7
-19
-27
13
-6
-16
-26
-8
-24
-16
-22
-16
15
13
-18
-19
-20
-27
-19
-12
-20
-20
-20
-6
-13
-12
-26
-15
-20
-13
-7
-20
18
26
-6
-26
-18
18
26
13
-20
-25
13
-13
-18
-9
-6
-2
-5
-10
-26
-8
-22
-6
-12
-6
-3
15
6
-22
-15
-22
-13
-18
-25
-25
-24
-9
-16
-27
-16
-17
17
13
-8
-10
7
-21
-14
-27
-26
-4
-16
-4
-19
-4
-14
6
-22
-27
-21
17
-20
-18
-8
21
25
-7
-25
-8
-15
-23
-7
19
20
-27
-14
12
-26
-12
-15
21
23
-9
-21
-3
-6
-8
-25
-26
-10
-14
-24
-3
-6
-15
-10
-26
-6
-5
-26
-12
-5
-5
-14
-20
-27
23
-4
-23
15
-5
-27
-27
-22
-8
3
-6
-20
-21
-8
10
-10
-18
-27
-6
-23
17
-13
-8
-4
15
-4
-22
-8
-25
-18
-15
4
17
-10
-7
17
12
16
-8
-15
25
-7
-7
-10
-27
-25
6
-17
-18
-16
-25
-18
-3
-19
-7
20
13
-17
-3
-12
-4
-9
-10
-15
-22
-19
-24
-15
-17
-27
-5
-3
-7
-11
-26
19
-12
-18
-15
-23
-3
-26
-10
-21
-9
-4
-23
-24
-26
-6
-20
-5
-23
-15
-13
-13
23
-6
-14
7
4
-12
0
-13
-27
0
-5
20
-10
-18
0
5
6
-15
-15
-11
18
-22
-15
-13
8
-24
-5
-16
-7
-7
-20
-20
-24
-14
-5
-16
-18
-6
-13
-26
-25
-27
-16
-18
-14
-25
-8
-10
-14
-4
-11
-12
-3
-17
-17
-10
-9
-17
-4
-12
-19
-2
-23
-17
-16
1
-16
-11
-25
20
-2
-24
0
-25
0
5
-11
-20
-7
-4
-5
4
0
14
16
0
14
-20
-2
-2
18
24
-9
-8
12
7
2
10
-2
8
-9
6
-13
7
-23
-27
-13
-24
-21
-14
-12
-5
-22
-2
-7
-14
-12
-24
-6
-9
-26
-23
-21
-8
-13
-6
-7
-25
-19
-2
-4
-8
-1
14
0
12
-8
4
19
4
-11
14
-14
-5
-2
-23
-15
-3
-4
12
2
4
-12
-1
-11
-24
-19
-13
-14
8
20
-16
-24
-14
7
-24
-18
-24
-7
-22
-14
-25
-22
-16
-24
-25
14
-7
-5
-7
-9
-8
-17
-10
-17
-19
-13
-16
-8
-28
-25
-12
-4
-3
-25
-9
-20
-22
-3
-22
-20
-27
-16
-10
-23
-26
-5
-16
-8
5
-2
-17
-17
-14
-6
-13
-11
-25
-3
-17
-10
-18
-3
-17
-16
-11
-18
-13
-21
-24
4
-11
-27
-3
-25
-20
0
-6
-13
24
15
7
0
15
-15
-20
-18
7
-24
-19
-25
19
-12
-19
-8
15
-11
-11
5
-7
-7
-12
-15
1
-19
-4
-3
2
21
-15
-11
-19
-10
-7
8
18
24
-7
-4
-22
-3
-5
-27
-27
-2
-27
-5
-26
-4
-21
-27
-27
-5
-18
-12
-24
-21
-21
-14
-26
-27
-25
-23
-19
-6
-2
-17
-22
-6
-7
-4
-17
-9
-4
-27
-21
-15
-9
-27
-7
-16
-2
-20
-24
-16
-8
-6
-7
-17
-10
-22
-19
-12
-22
-10
-16
-23
-17
-6
21
-5
-18
-12
-23
17
-26
-12
-26
-23
-17
-10
-14
-20
-5
-25
-27
-8
-10
-2
-12
-25
-25
-9
-15
-17
-13
-7
-23
-9
-17
-27
-11
-13
-15
-6
-19
-21
-4
-17
-7
-2
-11
-28
-10
19
-11
-15
-5
-11
-23
-15
-22
-24
-16
-7
-11
-24
-7
-15
-17
-16
-21
21
-5
-2
-19
-12
-13
-7
18
8
14
-21
-7
1
3
1
-25
-4
23
9
0
15
-24
2
15
11
5
-13
-25
-27
-13
-9
-12
-19
-17
-5
-10
-22
-8
-21
-19
-27
-7
-11
-7
-5
-13
-23
-4
-6
-27
-25
-8
-12
-25
-2
-20
-11
3
10
-6
-22
-16
7
16
0
-9
18
14
11
-18
-4
1
-18
-4
10
0
-6
8
-8
11
8
10
-6
7
11
-5
-10
-15
-2
-4
-16
-3
1
12
3
0
2
7
21
4
-9
0
-15
-20
-8
26
-5
-30
-10
-9
-2
-3
-30
-38
-19
-16
-6
-8
-17
1
17
31
-6
26
46
53
6
-14
-9
-16
-8
-10
-12
-9
-10
-4
-14
-20
-29
-10
-13
-4
14
3
-9
29
31
32
16
32
43
-3
-2
6
3
23
-4
19
12
26
24
-1
5
5
-11
-13
-2
-48
-37
-25
4
32
-27
-27
5
20
16
18
-16
-3
11
6
-33
-29
0
6
9
-10
-15
-25
-16
10
0
-30
-30
0
8
25
7
-1
-3
10
37
10
-8
9
15
-24
-26
-3
12
-9
-27
-14
-11
-22
-10
8
-21
-18
-7
20
38
27
0
-2
-14
-28
-10
-25
-4
-3
5
12
-5
1
-9
17
-12
23
-5
-2
-6
-19
-30
15
13
-26
-34
8
30
21
2
17
9
6
11
5
21
26
-12
20
-3
19
-11
-7
20
9
-21
-3
20
13
7
-15
-24
-17
-22
35
8
-14
9
-5
16
-12
7
26
6
-21
-17
-2
8
6
-18
-33
-36
-4
13
-18
-20
-35
11
27
-16
18
23
16
-8
-2
4
19
23
28
-4
-14
19
5
-6
-18
-19
-17
-39
-9
6
-7
-2
0
28
35
31
4
-29
-20
-8
0
16
28
-19
-4
13
-3
23
57
25
28
49
30
0
-1
0
-13
-27
-31
10
31
21
7
-17
1
17
21
15
32
-11
-4
15
16
1
8
0
-4
-32
-4
-6
-27
-22
3
0
-15
21
17
5
3
-24
-15
-22
25
8
-19
-30
-17
8
-2
-32
-15
11
-4
-11
34
11
7
3
14
-14
-54
-24
32
22
10
-23
-11
3
-3
35
35
10
-7
2
2
5
-45
12
-3
-32
-28
-38
9
6
-22
-13
18
-1
-10
6
-2
18
12
-15
-26
-1
-9
5
3
-53
-41
13
21
39
-3
7
22
14
-15
-38
-32
-9
-35
-15
-23
-11
-1
-50
-36
24
26
48
19
-34
-5
3
16
27
-3
-19
-37
-24
0
-16
5
-21
0
12
-2
-15
-28
-23
3
-11
4
8
-35
-3
-4
47
45
9
7
13
32
9
0
-1
2
18
29
21
-19
-6
26
7
0
2
3
-9
12
3
16
9
2
27
13
-15
-6
-18
-16
-23
-23
-2
10
18
-6
-22
2
11
10
4
-6
14
-7
-22
6
0
7
-13
-1
3
1
5
-8
-15
-6
-9
-1
-4
47
22
-13
-13
-2
4
-3
-3
1
-3
11
-1
-11
6
-1
0
29
-11
5
-3
-1
-3
-10
8
-22
15
5
-26
-14
29
41
13
-27
-15
1
24
23
4
-5
-14
29
7
-1
-13
-25
20
13
-3
5
-63
-3
11
-7
-1
16
21
14
-21
-28
44
19
13
-9
-21
-17
24
13
0
-18
-10
17
22
-4
8
20
39
39
24
9
-16
11
2
-1
5
-5
5
-11
-17
7
-10
-10
0
-8
-2
-7
-22
-12
-5
0
24
-8
-23
-4
-18
2
18
-18
7
-10
26
6
-15
5
-4
13
25
-22
25
-13
-4
14
-10
27
16
-1
10
22
23
3
-3
14
14
-13
-12
0
16
3
-13
-16
-10
15
14
3
5
-15
1
20
1
-3
16
-28
-20
13
62
22
-28
-24
-28
19
19
15
-17
-3
39
7
2
1
4
0
25
-3
-1
-11
-6
-58
-22
-6
25
74
-38
-3
11
22
83
-2
-19
-7
28
58
-25
-27
-35
-19
116
-3
-36
-48
-20
-24
-20
-40
1
37
37
3
-17
-14
5
15
40
5
-48
-21
33
24
0
-21
-9
7
17
5
-2
-10
-2
19
-5
-14
-7
-3
29
-4
0
-24
-31
9
15
15
-2
-32
1
1
-5
-6
-10
-6
1
19
-5
-2
4
46
35
-15
3
-25
24
4
-7
-26
-18
-35
-3
-20
0
-18
-17
0
-10
7
-12
-34
5
5
-7
20
35
-3
-9
-2
19
15
-13
-25
5
25
4
-1
-26
-18
22
18
-8
-27
14
-4
18
-8
-1
16
15
10
0
15
-10
26
34
-14
-7
-20
11
15
0
-35
-28
-14
13
-13
-15
-26
10
31
2
-11
-7
-24
-2
-5
-16
-15
-13
27
22
7
5
-8
-1
10
4
-11
-37
-26
-16
-14
-7
-12
-25
-11
-17
-4
-30
-31
-8
17
-3
-35
-22
12
16
-8
21
-7
14
21
4
18
-15
23
3
39
-3
-1
10
-1
20
9
-14
-10
-9
2
-10
-6
5
18
15
9
7
11
14
10
21
5
5
29
21
-3
2
19
15
30
-5
-2
10
8
13
13
-14
2
12
6
-2
-17
9
0
-19
-3
-11
-13
6
8
26
11
0
-1
21
11
-12
16
19
0
-19
-14
-4
13
-8
-25
-33
1
13
-13
26
-1
4
-1
11
22
3
13
15
4
64
17
-7
13
-9
-4
-29
-26
10
1
-37
-44
-8
3
-1
-3
-33
15
2
22
23
7
7
6
3
7
20
-11
-10
2
2
-20
-8
14
6
21
-24
14
20
-8
10
0
-19
5
6
13
-16
-22
-5
17
7
22
19
27
-19
-20
3
18
9
-7
-18
-23
2
-12
-21
-22
5
15
15
12
5
23
9
12
6
9
32
23
25
22
17
4
-15
11
-3
-27
-20
-10
15
-11
-10
-32
15
16
-8
20
5
18
11
17
3
18
11
4
-14
1
13
-10
3
-3
4
19
-16
0
-15
-8
17
-13
0
28
-7
20
32
45
50
47
69
66
61
-24
29
31
13
46
-13
-4
-3
16
-18
-43
9
20
32
46
34
7
62
51
19
72
30
18
3
-9
7
21
22
23
-14
-7
-6
6
18
-11
-24
0
21
4
-23
-7
-11
11
16
29
41
9
23
4
-5
-3
-29
7
-15
8
-9
-23
-13
-18
0
-3
-5
-1
20
19
7
26
17
5
42
12
-12
20
46
50
3
0
-7
34
7
-2
23
1
24
3
3
9
14
-3
-2
-9
18
39
-15
-16
3
-10
3
0
17
10
-13
-8
11
11
-18
-17
-1
0
-1
4
-23
-15
13
12
-3
-5
4
-9
0
-8
-19
-13
18
-4
24
-28
-5
12
8
28
2
-17
-4
1
-7
-13
-16
-2
-21
-12
-15
-15
-22
-21
-6
57
13
22
-7
-11
15
-13
10
-1
-13
-13
1
23
14
-1
29
31
6
22
18
-7
2
-18
-21
-22
2
-16
-12
12
-15
-2
-30
10
17
-13
11
2
26
11
-12
35
2
-11
-13
10
11
-11
-13
10
18
8
4
5
-1
0
-8
-10
-8
15
-23
12
-4
0
10
-5
24
20
19
3
30
13
3
3
7
21
-29
0
-3
14
4
-26
-22
4
8
25
-3
-10
18
11
-23
-19
-2
9
-16
-4
5
-5
5
3
26
0
5
2
3
8
-13
-19
11
0
-17
-15
-10
17
15
-20
-4
-3
4
21
-6
18
5
4
19
22
3
3
6
-5
7
4
-12
-15
11
-12
-6
-34
-1
9
-31
-5
-20
18
15
-10
26
9
9
-8
2
-14
-8
-1
9
22
-4
-18
-2
19
11
-22
-8
11
18
5
-6
27
-4
-24
-4
-22
5
-13
-4
12
-13
23
-2
-4
-18
24
6
8
-16
-26
-12
21
14
-27
-14
-7
24
2
-6
-21
-25
12
27
17
0
9
15
9
18
10
12
-6
-20
9
5
-13
-17
-3
26
-8
-7
-29
3
0
-24
6
18
-3
-9
12
-7
24
9
3
-10
-6
28
-15
-1
-13
-3
6
2
6
-12
-15
-8
-5
11
-44
-13
6
3
9
22
23
18
20
10
-54
7
1
27
13
-31
6
-10
0
10
31
8
23
-15
14
-10
-19
-9
-1
-33
-74
4
24
7
-15
10
0
26
-4
-30
2
-2
10
22
7
-8
-25
18
9
-31
-44
-17
2
-8
1
-3
-7
0
-6
17
-3
-16
1
4
6
-11
-18
-9
-27
-1
-8
10
-9
-4
24
-3
17
2
15
25
12
-3
-31
-7
34
-6
-5
-21
-12
9
0
-8
-20
-21
0
12
-10
-6
11
14
3
7
2
-29
0
-4
0
-4
-2
6
0
-4
-17
21
17
-11
-2
-17
1
-13
-7
-7
-3
-6
-5
14
9
2
9
11
9
-5
-14
19
-9
4
-13
-9
-2
-7
0
-1
-31
22
-10
-1
18
-14
20
4
10
6
0
2
-3
0
28
-16
-6
-14
-15
4
-36
13
7
-4
0
1
11
25
15
14
11
3
15
21
-8
17
-13
-14
-4
-21
-20
-14
-10
-15
-17
-11
-23
17
-7
-22
-15
-24
-17
-3
-23
18
-7
-23
-5
-27
-6
-13
-26
-15
2
11
-9
13
0
4
3
-8
9
-6
-11
4
-1
-5
10
6
-1
8
-5
-3
5
3
0
9
-8
22
-13
-4
10
12
-18
-2
-6
9
-24
-19
-17
-5
-27
-23
16
-19
-19
-12
-4
20
6
-6
-8
-12
-5
-4
-14
-12
-27
-7
-24
-17
-3
-20
-26
-24
6
-5
-8
-6
-11
-13
-22
-5
8
-20
-25
-23
-10
-19
26
-25
-9
-1
-15
-2
-8
-26
-7
-7
-8
15
6
-24
-14
-15
12
-20
-19
11
8
-7
-12
-16
-7
-9
-5
20
27
20
-3
-21
-4
-1
-6
-20
-9
-2
16
-4
25
3
-25
-21
-19
-14
-2
-23
-3
-9
-3
-12
16
-2
-19
19
20
3
7
-24
17
16
-1
-19
-25
-9
1
-24
-22
-4
1
18
2
4
-9
11
16
-7
-8
-17
-27
-2
-8
-4
-10
-6
-18
15
-6
-27
-7
-7
-24
-25
-21
-9
-18
-7
-7
-24
27
7
-24
-3
-22
-14
-16
-11
-22
-23
-26
25
-22
-3
-19
-26
22
-25
-8
-15
-20
-9
-12
-17
-9
-23
26
6
11
25
-9
-25
3
-7
-23
-4
-19
12
-13
-8
-17
11
22
-21
2
-11
3
-18
-23
14
15
27
-23
25
-15
-4
-16
-11
-22
-18
-10
-12
-21
-11
-26
13
-26
-22
-23
-21
21
-6
-11
-12
-21
-18
-3
-16
-17
-5
-27
-6
-6
-14
-5
-16
10
12
-17
20
-12
-20
-14
-19
-25
-12
-15
-22
-27
4
0
2
11
15
6
6
-12
22
24
10
-16
-18
-4
-18
-1
-13
0
-18
-12
4
-2
-8
-13
-17
-22
-17
-20
-24
-26
-11
-22
-25
-20
-22
-16
-25
-26
-25
-21
-20
-3
-10
-11
-12
-16
-7
-5
-11
-9
-13
11
1
10
-4
9
-11
6
2
10
10
12
5
-8
0
4
-2
7
0
-8
10
1
1
-6
4
0
8
-2
-19
-25
5
-2
7
6
10
9
0
6
16
8
12
-5
7
7
-2
-4
0
10
-12
3
-5
0
-11
4
5
-27
-4
-26
0
5
18
31
23
25
-15
25
50
14
-5
-12
-2
0
-10
-2
-11
13
13
11
-8
9
11
-4
-10
-18
-12
12
14
28
19
4
7
18
8
4
9
-1
2
-8
14
1
9
-14
-20
-16
12
-3
3
-4
19
29
4
9
17
33
13
17
38
17
-5
5
2
11
6
9
15
21
22
9
18
27
1
-14
-24
-8
9
-11
-15
-3
0
-4
2
16
18
5
7
9
30
25
22
8
33
1
14
0
16
31
3
-14
-7
26
-24
-28
-3
6
15
-37
7
29
12
11
-17
12
-11
-9
-1
-34
-35
-18
-26
4
-5
3
-20
12
37
9
7
9
25
31
23
23
20
10
3
-14
-6
-2
-11
-6
-19
21
24
8
15
-14
-15
23
7
15
-14
-21
9
19
11
-12
-13
12
-27
-19
16
28
21
-7
-4
10
-11
10
-12
-27
24
9
-5
7
20
-8
-20
-3
10
26
-14
-5
21
-5
3
5
22
4
11
3
4
14
25
39
-22
8
30
23
11
-20
9
1
-9
0
5
25
5
-13
14
19
-10
4
12
-27
-31
91
77
89
-16
-42
53
65
55
13
-60
12
-14
-25
6
-21
-8
-46
-59
16
25
24
-12
-25
26
61
-12
9
37
-8
-24
25
18
13
4
-3
7
-1
-14
-8
14
-3
-12
2
10
20
-12
-4
-31
-14
-1
14
16
20
19
5
-11
-1
2
9
21
-1
-21
1
17
9
-3
3
4
7
2
-1
6
11
6
3
-19
-58
-43
-34
5
5
-36
2
17
20
18
-4
21
-3
16
66
34
2
11
18
43
6
7
14
1
-12
-4
0
0
38
-13
-3
7
26
37
15
13
3
6
-5
37
34
12
3
-25
1
4
6
-5
-24
-31
-29
-35
19
-12
-20
-8
23
40
50
-5
20
5
2
16
-1
3
-10
-7
-9
13
20
40
2
-11
45
16
0
10
16
17
13
-10
-15
-27
-8
11
9
3
2
-60
-26
7
18
19
-14
6
27
14
14
21
-5
-2
-45
-26
-30
-14
-50
2
-29
16
36
41
-10
-37
77
49
-15
-45
-48
-93
-45
-40
-37
-14
4
8
-8
-1
-11
-3
-22
-17
3
8
19
12
23
12
-37
49
49
27
-34
-21
17
16
0
-35
0
28
32
-27
-29
-13
-57
-3
-5
2
31
-20
25
46
3
1
24
52
31
-26
0
2
-15
-14
6
7
5
16
-8
-29
0
18
4
22
9
1
-4
7
5
0
-16
-13
-10
-1
-26
-33
3
37
18
-17
-12
-40
-16
22
0
15
45
25
64
-6
11
38
-25
21
9
-23
-44
-4
-1
-9
-23
21
42
6
-23
-29
4
28
-28
-10
-30
-47
-23
-35
-6
17
-54
9
-14
12
21
7
47
-17
-15
-38
-41
-53
-25
-12
-22
-11
-7
-7
15
-8
11
8
-12
-14
3
8
9
-26
9
2
7
20
5
-5
-2
22
-17
4
-9
-2
-8
78
-6
-13
-28
70
9
-23
-7
15
-22
-9
-2
7
7
-27
2
-16
-38
-13
11
14
-28
12
7
59
48
4
14
39
15
37
-26
-24
2
-8
10
-20
-3
32
-26
-1
-4
-12
-16
33
-4
-31
-54
-47
1
-66
-45
61
76
76
42
-12
-2
56
46
38
-54
-32
69
-34
-29
-42
-10
48
-24
-30
-41
-24
-1
60
64
17
0
75
38
52
-31
-23
22
4
0
-17
-14
59
-20
-36
-4
-7
-6
27
-9
-39
-24
-21
13
-23
-15
-16
24
-12
-3
14
-26
-4
0
-4
-7
-1
-32
18
-10
-33
-22
-31
0
25
31
-23
-24
11
56
-39
-57
4
71
18
-19
-30
-22
91
-14
-6
-6
7
95
9
-24
10
25
17
-100
-21
3
23
57
0
0
-69
-43
-32
-37
15
-59
-23
10
4
9
-25
-62
74
7
-51
-22
-59
-39
-56
-66
-26
18
74
32
7
22
-31
84
-8
108
82
-10
16
-20
103
8
-33
50
4
42
3
-25
99
19
-51
-19
49
1
-18
-11
-28
7
24
6
35
9
-19
21
40
25
5
14
-52
-10
-4
-15
5
-20
17
21
-29
4
-8
-21
-6
-3
-16
-10
-11
-13
-10
-17
-15
-7
-20
-2
-17
-1
-16
-8
-11
-14
-8
-5
-1
-20
-15
-23
-12
-4
-13
-18
-20
4
-25
-17
9
-24
-14
-21
-16
-13
-21
-26
-19
-12
-17
-15
-9
-13
-8
-5
-25
-9
-27
-23
-21
-16
18
-22
-11
-9
8
19
-18
-21
3
22
-5
-27
-9
14
-13
-9
-22
-8
-1
-17
-21
-15
-7
-26
-26
3
0
-23
14
7
1
-17
-15
1
-23
-15
-14
-19
-18
3
12
-5
-16
-7
5
24
13
-9
15
-15
14
28
-20
21
-26
23
-11
-22
14
-24
0
-6
0
3
6
-1
-19
-21
5
-21
-14
6
-12
24
-16
4
-8
-3
4
-25
22
-20
-7
4
7
-18
-17
-17
17
5
-12
-9
7
11
-3
3
24
-8
9
6
10
26
-1
-13
-10
-8
13
-3
1
-19
-17
14
5
5
-3
17
17
-9
-2
-3
-6
15
-20
-15
-3
10
22
0
-13
-28
8
19
-19
-27
9
13
-18
-14
23
15
-16
-11
-8
18
21
-15
-8
14
19
19
-14
-2
8
0
18
-1
18
9
0
-19
-7
18
15
-9
-5
-14
-21
-13
-19
6
2
18
10
-16
-14
14
-16
18
-7
22
-14
-15
17
-25
-10
-19
3
13
-9
-3
-12
-16
25
-3
7
-13
-14
15
-4
-15
0
0
6
-27
-20
1
14
-1
-9
5
5
11
-18
-1
22
-4
-5
-2
27
-1
-18
-5
-21
-17
15
0
-10
-21
-28
-9
-23
4
-12
-18
-8
-27
-14
-9
2
-28
-28
-20
-3
8
-7
5
-16
-8
-10
-1
-20
-5
-21
-28
-7
-23
3
-10
-6
-12
-8
-8
0
-17
-9
-6
-9
-6
3
-3
-3
-13
-5
-21
-7
-11
0
-4
-13
-22
-14
-19
-13
-9
-7
-20
-20
-22
-18
-19
-16
-19
-14
-20
-19
-9
-21
-2
-2
-21
-24
0
-26
-4
-21
11
-18
-8
-8
-1
-16
-5
-19
-14
-6
-2
-19
-9
-5
-4
16
-11
-14
-17
-7
22
-4
-18
-12
14
-20
-12
-15
-24
11
-25
-23
-15
-27
-7
-3
-23
-9
-10
-16
-31
-9
39
35
-15
-5
36
24
6
-33
25
5
9
5
1
0
12
-8
-31
22
9
-20
-10
-30
-15
-21
-5
18
45
-5
30
25
25
-2
-5
17
8
-13
-27
5
-16
0
-11
-28
20
-1
-21
-15
-13
-28
-25
-16
12
43
-25
-44
-3
9
21
-15
-18
15
0
-17
-28
29
23
0
-27
15
18
2
-21
-40
-36
-47
-13
-13
9
-39
-3
-1
13
-7
-20
2
13
18
-25
-17
-6
20
-24
-27
9
0
-10
-8
-27
-44
-36
-29
-10
7
-28
-22
-18
-6
7
9
1
-4
2
-13
-18
13
1
-1
-34
-18
0
6
-14
-33
-13
-22
32
6
18
-18
-34
17
6
23
-23
-15
5
0
-3
-25
33
10
0
3
14
48
15
-19
-22
-18
21
-13
0
3
-4
-19
3
-21
-4
5
11
13
-16
-10
16
-21
21
-18
-17
-26
-9
27
-27
-2
-22
-43
-40
-1
35
-26
-30
-15
14
17
-13
-8
10
17
-9
-29
-1
20
25
0
-17
24
19
-19
-23
-39
-11
-22
-43
17
-19
-16
-37
2
11
13
-9
9
-4
-29
16
14
2
9
-48
7
-5
10
-18
-37
-64
-66
-16
2
-40
-42
-56
-25
-3
29
-83
-25
-7
6
4
-30
4
-2
-11
-53
4
4
33
35
-3
-39
-27
-50
-35
20
-35
-51
-43
4
5
-32
-30
0
-1
-10
-11
0
19
5
-11
-10
-1
-7
-25
-18
-43
-14
-4
-12
8
-26
39
21
9
21
16
22
8
21
-17
3
0
-15
-3
-16
9
1
-15
-27
-36
16
56
105
-1
11
16
-13
15
0
10
-7
-16
12
23
25
-25
6
38
9
11
-17
51
32
7
-16
-28
-15
0
35
13
-21
2
15
31
-24
-9
30
-3
11
-9
14
15
-2
-12
-14
23
12
-11
-4
-33
14
17
29
0
58
21
-21
-20
-26
46
-11
-26
-27
-24
19
-19
58
-12
-21
24
4
24
-8
16
1
8
-4
10
-5
-13
-1
6
25
-3
1
-6
-14
-7
5
-14
12
1
12
-21
-14
0
-4
11
16
13
-4
-4
7
-13
-8
1
8
8
-34
-26
4
12
-4
-10
-8
-7
15
0
8
-9
-12
-5
0
9
-16
-19
-5
-18
-14
3
-3
-14
-3
-32
-27
-11
-3
-13
-23
-6
5
-1
7
6
13
-26
-26
12
-6
-11
-20
-5
-5
-24
-21
-9
10
1
-15
1
-8
19
13
-4
-11
-12
7
-32
-10
2
-9
8
-2
-7
-1
-27
-21
-10
-13
-2
-23
5
-1
-23
-17
6
0
-10
-17
-22
18
-1
-10
-14
-12
14
11
-1
-7
-1
-31
-19
6
-6
6
-21
0
-12
-6
6
-1
-9
-1
-37
0
-3
2
-18
-8
2
0
6
-7
-19
-18
-5
-17
-7
-9
-22
-8
11
4
0
-2
8
11
28
18
16
-2
34
-13
-2
13
-12
-7
2
1
-3
-1
4
9
-1
-1
-5
12
8
3
25
-9
14
0
3
26
25
-7
23
5
20
19
0
14
18
20
-14
-17
-16
-7
5
-29
-9
3
9
-16
-13
3
10
-9
4
-6
-3
16
-6
-4
14
23
-9
-14
-7
-12
-5
0
7
7
-6
-5
-4
19
26
0
-35
-27
-8
15
13
-32
-23
-29
1
2
-12
-11
-16
-1
-18
-1
-1
-20
-15
-23
12
5
-11
-26
-14
-11
-3
13
-38
-1
-3
-9
-5
-20
3
-6
-6
1
2
-22
-14
-11
-6
-12
-24
-20
-2
12
10
-30
-17
-15
2
-9
-20
-34
-45
-16
-5
-13
-24
-12
-14
-16
-20
2
1
10
21
-15
-30
-13
-2
20
-2
-21
-26
-5
-18
14
2
-4
-21
-9
15
8
1
-12
-6
-8
-25
-16
-36
-23
0
13
21
-10
-6
-12
25
17
-19
-2
-9
34
28
-17
-20
-34
4
-19
-8
-22
-16
4
0
-21
14
-5
3
16
0
18
12
24
-24
0
7
25
30
-15
-9
3
24
11
-1
2
0
-19
-15
-12
2
-28
2
0
20
-3
18
13
11
9
2
17
2
30
-15
4
9
6
-3
-2
-4
-14
-32
-22
-10
-24
-12
-9
-5
-8
-36
-17
-7
13
8
-26
-20
-28
-4
6
3
-17
-27
-3
17
-10
-22
7
-31
-23
28
-3
-16
-25
9
19
-26
-18
-22
0
0
-9
17
-4
0
-1
-1
31
22
-11
15
4
-18
-8
-6
0
0
-2
-23
-18
-1
-29
-20
-6
-5
-5
5
6
-12
0
16
1
13
7
7
15
-14
-18
-24
4
9
-7
-6
-35
2
3
-13
-19
-14
-2
8
-9
-37
-17
-2
-5
-24
-9
5
0
-5
-10
-3
-22
0
17
5
-19
-34
-7
22
-21
-33
-22
-3
0
-14
10
-3
2
10
-24
11
-13
-2
3
2
6
11
-15
2
-20
-8
-31
-8
22
-12
-11
-30
15
21
-29
0
-34
7
6
-12
8
-22
2
12
-6
6
-16
4
-1
6
9
-20
0
1
6
-11
-11
25
17
-3
-18
4
16
-11
-15
-4
27
5
-14
-13
-20
10
19
15
14
-11
27
15
-9
-22
-27
-21
21
-16
-7
-3
-13
4
25
19
7
21
25
-23
-27
-1
4
-2
-5
20
-5
-29
-25
7
0
1
-17
7
8
-2
-22
-17
7
17
-23
-6
4
10
-6
-12
-24
18
0
-3
-8
-26
1
14
-18
-7
-19
7
8
2
-22
-33
-17
-7
-14
-24
-9
13
26
20
11
-3
-13
25
-8
-55
-1
-1
8
-3
-58
-24
-4
14
3
-23
27
43
14
7
-45
-32
9
23
0
-58
11
17
9
-28
7
-21
3
-1
-3
1
-31
10
30
3
-2
-11
10
5
0
-23
-26
11
0
9
2
-10
13
-2
-2
-17
-37
10
-9
-12
-6
-19
-16
-31
-8
2
-10
-9
-5
24
-2
22
7
8
23
10
-2
-13
-1
35
6
7
1
-11
15
8
5
25
-9
15
1
-4
-6
16
18
0
6
28
-2
7
3
0
-24
1
13
-6
-2
-25
14
18
-18
-6
-18
10
-4
4
-19
-15
15
10
2
0
-7
-1
12
-10
8
4
28
9
36
2
-34
5
-6
11
15
-28
15
9
-3
15
-7
35
25
-6
6
-14
21
17
3
23
-44
2
6
-18
7
-11
-7
-1
-4
-5
-2
-13
-2
-13
35
20
16
8
7
-3
16
3
-7
-9
48
15
5
7
-5
18
13
19
12
-21
-5
3
3
-1
-9
-5
-9
13
26
18
-18
-39
0
23
16
-24
-25
-4
5
11
-4
-4
0
25
3
-2
1
-13
1
-29
-7
-5
0
-1
4
-13
-35
-14
-8
-35
-18
15
16
22
4
17
19
11
-6
2
5
7
14
-2
3
-47
5
-10
10
13
6
6
6
23
7
-2
6
5
-4
2
15
16
35
-7
7
14
9
23
7
-7
7
12
26
23
3
15
20
18
24
-10
-8
-2
15
19
-11
21
28
0
-6
-15
32
15
14
2
11
12
7
30
2
7
34
45
43
12
-16
-15
31
32
-9
-8
-11
-5
11
-26
-40
3
-4
-12
0
-30
-20
29
-34
-1
-3
-11
8
-16
6
21
23
22
16
-23
3
25
21
10
-4
6
-28
-3
25
-12
27
-21
-7
6
-12
22
4
3
5
-18
27
-23
8
4
19
18
-20
-3
1
-6
-9
23
4
-6
-5
-17
-1
-3
-15
-6
5
7
19
-11
18
11
-17
-5
-25
-3
32
0
0
-16
26
35
-7
-19
1
31
0
-7
-8
-8
-6
-50
21
28
17
0
2
-99
-72
-15
75
71
-41
-15
-6
34
51
-51
-33
-61
-20
14
-32
-8
-35
-36
-78
-2
-10
27
10
-71
-28
-28
1
13
63
-37
-2
23
21
22
-20
-6
14
25
-4
-7
-39
-13
-23
-37
20
23
-5
18
3
2
8
-14
2
20
-5
14
-11
-11
-14
-1
-1
-9
2
-32
29
31
-9
12
-19
38
23
32
12
0
39
59
46
-16
-9
47
55
11
-8
-12
30
49
8
8
13
-31
27
22
23
5
-55
-14
11
29
25
14
3
-3
14
-42
35
20
24
-12
-22
15
19
8
9
-2
3
-2
-7
6
5
-4
-13
10
14
3
41
16
0
-45
-16
28
15
-20
-50
-52
28
13
49
-2
-34
18
15
39
32
-3
-12
-24
-36
8
18
-19
-30
-18
-7
32
-24
-13
28
14
5
-19
-2
-11
7
-17
3
29
15
15
-14
6
5
9
-13
-11
41
19
12
17
14
20
9
1
-18
9
12
15
-13
10
12
-15
-11
-4
29
3
4
10
10
19
0
-12
-17
14
13
-14
-6
2
-22
-23
-9
-20
-5
-13
-3
-9
-47
-36
3
17
-6
-27
-27
-12
18
-13
-29
-5
2
-22
-25
22
23
19
-23
-23
20
25
-8
-10
17
-5
-20
-29
3
4
-23
-20
0
4
-7
11
20
7
-6
12
17
14
2
-3
-1
22
10
-5
-19
9
-6
-2
2
7
-6
-19
-9
10
-6
-1
27
-1
-1
13
-20
30
0
20
2
1
0
4
-25
5
18
-3
-8
-22
0
5
-27
-14
11
-9
-10
-14
-20
0
-18
-33
0
7
8
-29
-13
19
27
3
-5
12
36
0
4
16
13
7
13
24
5
4
-7
6
6
-20
18
2
6
9
-27
6
-23
-22
3
4
22
19
-18
-21
-17
3
4
-10
-12
-27
10
-10
-7
-22
-4
-8
-14
3
19
16
-6
23
16
5
-18
-15
2
17
-10
12
7
-7
-10
-11
3
3
-17
-24
-32
-23
-5
10
1
13
-2
20
6
-14
-17
3
-11
-2
-19
-36
-30
1
-13
-7
-28
-28
-6
-34
-10
35
39
-34
-23
-15
-35
-42
-32
-31
-37
-24
-10
-5
-6
-27
-29
-35
-81
8
-11
-32
-27
-32
-33
-33
-29
-11
4
-28
-28
20
24
12
-12
-19
-4
13
-1
-3
-34
-41
-18
-7
-23
-16
-25
-12
-1
15
5
2
-5
-2
24
-16
-11
15
2
-13
-33
-35
-19
-5
-13
6
-20
-24
-1
-6
-5
-20
-16
-6
-21
12
-7
-17
-25
-5
46
21
17
-11
25
43
32
3
-12
35
48
31
-3
-7
48
31
37
20
5
-2
-4
0
-7
-8
32
34
-7
-4
19
13
17
-13
1
27
3
21
19
11
19
-14
7
11
5
-1
11
-1
0
-5
-11
0
33
25
5
-17
13
36
27
31
22
1
34
50
38
17
0
23
34
21
10
-8
9
15
8
-1
-16
-19
-12
-21
-7
-30
-22
-15
-19
-14
-28
4
-1
3
-31
5
-14
-6
8
11
-8
-8
-10
-24
-18
-25
-15
-26
-15
-9
-9
-3
-26
-26
-10
-7
-22
-12
-13
-17
-11
-24
-11
-13
-16
0
9
1
-9
-11
-8
9
0
-5
0
7
0
-7
0
0
7
1
5
2
-4
4
-4
-10
8
11
9
-14
-11
-26
-8
-14
-8
-19
-10
-18
-4
-25
-18
-20
-16
-9
-18
-7
-6
-16
-18
-3
-20
-17
-4
-25
-25
-9
-23
-27
-23
-17
-27
-23
-14
-2
-7
-22
-24
-23
-4
-18
-21
-25
-14
-11
-22
-14
-13
-9
-25
-6
-15
-7
-11
-5
-7
-7
-8
-7
-13
-22
-19
-17
-5
-16
-19
-24
-9
-25
-24
-13
-22
-22
-27
-9
-23
-7
-8
-4
-19
-10
-24
-6
-7
-8
-15
-18
21
-23
-23
-9
-12
-25
-20
-20
19
-9
-3
-11
6
-6
-11
-15
4
-7
-23
-16
-16
-8
-9
14
-4
2
-11
-2
16
-10
-22
-17
-21
-20
-11
-8
6
-24
-16
-10
-22
-24
-25
-10
-10
-4
-7
-7
-12
-6
-10
-19
-26
-12
-3
-26
-19
-22
-10
-6
-3
-18
-6
-16
-26
-14
-13
-26
-2
-8
-12
-27
-21
-24
-17
-4
-5
-15
-4
-12
-14
-15
-7
-26
-20
-14
-15
-5
-12
-3
-11
-2
5
-9
-5
-11
-18
4
-12
-14
-27
-26
-23
-22
-22
-20
-26
-17
-26
10
-13
-6
-20
-16
-25
-6
-21
-24
-22
-2
-18
-16
-22
-4
-12
-8
-22
-14
-20
-18
-16
-15
-9
-16
-25
-11
-7
-25
-26
-6
-8
-27
-22
-4
-14
-13
-12
-27
-12
-9
-24
-10
-5
-13
-11
-26
-10
-25
-8
-25
-22
-27
5
-2
-6
-9
-15
-4
-4
9
-2
-4
9
-5
-9
-9
-4
-12
-19
18
-2
-6
6
-8
12
-4
-11
-26
-21
-25
-18
-4
-20
-23
-4
-12
-24
-25
-4
-19
-17
-6
-23
-4
-20
-20
-22
-11
-18
-5
-20
-19
0
7
10
-9
1
5
-7
4
7
-4
3
4
-4
-7
-2
15
0
-8
3
0
-12
0
12
15
-4
-10
6
2
-16
-1
-12
1
-10
-6
0
0
1
-3
3
11
-4
-9
7
7
-12
-3
3
-4
-11
2
-60
-15
-12
11
9
-42
-18
-3
10
-22
-31
1
17
4
-18
-3
18
5
1
-22
37
0
-14
-14
-51
6
1
-1
-4
2
-18
-35
-17
5
-23
-4
16
7
34
3
-1
-1
1
16
-1
-5
-11
-11
-18
-31
-26
-25
8
4
10
8
-18
-7
17
2
-16
-36
-3
12
-19
-26
17
10
-11
-7
6
6
-6
1
-38
25
-1
0
11
-14
-8
-32
-16
1
-25
-28
-29
2
10
-23
-8
0
30
1
-18
7
-9
5
21
-2
70
27
-11
0
-6
32
-1
-33
1
-17
-24
-41
0
16
-30
-23
-26
9
27
-24
-10
-17
3
4
-14
-10
-5
-9
1
9
-5
-5
-20
3
-1
17
0
1
11
6
5
15
5
-30
-20
3
23
0
-36
-33
-9
21
9
-9
-4
10
3
22
3
17
-3
-27
12
-19
-26
-8
-27
26
-21
-16
-11
12
11
-15
-24
-5
0
0
10
5
-14
-15
-24
11
16
-19
-18
-5
15
-23
-15
-20
3
2
-24
-9
8
17
-21
-28
-2
29
21
-3
-28
-2
18
23
-13
-3
-31
-1
-12
-26
0
0
9
9
0
22
-13
6
22
19
20
58
18
-5
-22
-91
35
62
46
42
21
8
-7
19
-24
-25
-10
-9
-56
21
26
20
28
24
43
77
6
29
16
-37
-7
11
34
27
-2
-9
-9
-15
1
-21
-13
-21
-1
14
7
-11
-3
28
3
-20
11
-2
10
17
2
6
-26
22
-13
1
-5
-24
-9
-27
26
-15
5
0
-11
13
6
3
-19
-5
29
17
-8
-44
17
32
0
-3
-28
-4
26
13
-8
2
13
3
-18
-37
-34
42
-9
-13
23
54
3
1
-22
-11
-26
12
12
6
0
-7
20
12
6
-33
0
16
-13
-8
-4
12
4
8
-44
23
5
5
10
-26
-4
16
22
10
34
-2
3
19
27
29
15
1
9
12
27
9
20
0
-19
-6
21
4
41
18
-36
23
-14
3
15
0
24
-24
9
0
-25
-26
-4
6
-3
-15
-6
-9
0
29
-3
-16
-10
10
0
-1
9
15
5
-21
17
44
19
0
-2
18
40
17
-21
-9
20
-3
-13
2
7
1
-2
3
11
-12
-1
-14
0
-3
-4
-1
5
27
16
0
8
0
8
-13
-21
3
12
-14
-14
-9
-8
-10
-1
9
-13
-9
10
22
-4
8
3
-9
-1
17
-26
1
19
2
-9
-24
14
16
-4
5
9
-2
14
8
10
-6
9
-19
-3
-4
5
-5
6
25
-2
-18
7
38
34
10
4
-2
26
4
-23
1
15
-9
2
-16
-8
9
-41
-21
-13
-2
18
-12
8
13
-20
15
34
32
21
-14
-2
27
18
-19
-3
17
13
5
-14
-7
5
30
22
17
16
12
11
12
10
-18
9
0
0
-19
-24
1
-5
-23
-9
-4
9
-5
-2
6
18
8
12
2
15
4
8
3
-27
22
24
-6
26
18
1
17
23
3
20
-7
20
18
8
19
24
7
-9
1
10
0
6
13
-13
-3
4
-20
-9
17
30
12
-19
-7
17
17
-6
0
12
15
8
-4
13
1
-1
-18
-19
10
10
5
-16
-22
0
14
10
-6
-4
8
19
15
10
6
17
9
17
10
-7
-3
-16
-42
-50
-95
-62
31
-28
-33
-23
10
70
1
3
20
45
70
-2
6
42
30
33
5
1
33
16
-13
-17
-26
-17
8
21
-18
-17
-7
21
8
9
13
-18
5
7
21
3
9
-2
15
20
-12
8
-3
-15
6
-20
-21
-8
25
12
-13
4
0
-1
20
13
14
-5
0
20
14
12
2
12
-5
2
-4
-2
-6
25
57
26
-1
4
-4
29
3
-21
2
-20
-13
-12
-26
-9
-22
-24
-12
1
7
-24
-25
6
10
10
6
21
10
-6
0
10
21
-7
-11
18
17
17
10
5
2
17
-7
11
-4
23
-8
0
0
-14
24
15
19
29
15
-3
2
11
1
20
14
-8
-6
-20
6
15
13
7
-20
0
2
10
4
-1
-7
7
-25
8
-31
-21
2
-16
31
-6
-17
7
14
4
-8
-1
-1
-5
3
-12
-26
3
-21
-9
-9
-12
2
-29
-11
-4
-8
0
-24
-10
3
-11
-7
-9
-35
-23
-12
4
5
2
-12
9
7
-33
27
58
42
29
-27
2
-4
11
-28
0
-6
3
-44
-32
10
-6
-25
-38
-8
12
2
-9
2
0
14
18
28
48
38
-2
10
-13
-9
-20
4
5
7
17
0
-23
-4
16
0
28
-34
-12
-4
15
-2
-15
-17
5
26
13
-5
-8
13
21
23
-21
-1
6
-10
12
4
16
-8
-17
7
15
7
-28
-20
17
18
25
-12
-7
12
-37
-14
21
19
9
-75
-21
-4
11
29
-25
26
8
-29
-8
16
4
-20
-20
-7
33
5
-34
-12
8
-9
-28
-37
-42
-31
4
-13
12
0
-22
-3
-3
23
10
24
-3
-18
-2
27
8
-38
-29
36
20
5
-23
2
17
23
19
-14
15
14
11
24
12
27
-17
14
17
-24
-20
20
-15
6
16
-12
-2
16
5
10
-16
-12
3
-19
13
1
-2
6
22
-11
-7
-1
13
14
-20
-20
0
3
21
13
-7
0
16
25
-2
3
39
42
16
-9
-1
18
21
27
-3
4
19
1
-19
6
3
-18
-38
-57
21
-9
-13
-36
-30
-24
14
14
-12
8
-22
-25
25
28
-11
22
0
-11
21
46
3
11
45
-43
-27
12
26
3
-37
-23
-5
-2
45
27
-28
0
26
16
28
32
4
0
5
16
16
14
-5
-3
-25
-28
26
3
-26
-25
-21
6
-4
24
41
41
-19
-17
-14
-2
8
-33
1
-2
-28
-18
-5
9
0
-48
-9
17
28
-7
-16
-16
45
-55
-74
-61
12
53
-21
-4
16
11
41
-16
-1
17
22
1
-6
-19
38
29
-38
-39
5
35
28
-10
-16
-18
-28
-21
-11
6
15
-11
-13
9
-7
0
-9
15
-20
-16
-23
21
17
2
5
1
7
25
-13
-56
-58
-55
-50
1
-7
14
-15
-18
11
39
45
-3
-13
-5
0
3
36
15
-12
-10
-3
21
36
-23
3
-34
-16
7
-23
-13
-23
-33
-39
47
10
-20
-19
-4
42
29
0
1
4
17
21
9
29
31
0
12
7
-4
8
6
15
28
20
5
24
18
2
-11
12
10
12
22
-7
-3
-10
-4
10
-11
-13
0
-5
0
-10
15
5
5
24
27
6
9
5
-2
2
13
6
-1
2
-1
4
-12
0
7
-19
-20
36
32
14
6
23
-28
-12
-8
-10
-3
-7
8
-8
-23
0
-10
4
16
-9
7
-8
-9
13
1
13
-17
16
-5
-17
-24
-14
29
-3
-19
-11
-12
6
12
4
6
-1
0
-1
-5
9
2
0
3
-19
-9
-29
-3
-14
-11
-3
8
12
-12
-10
-21
3
21
13
0
-6
-2
9
8
-1
0
13
18
14
-10
9
31
42
39
31
11
-15
11
12
4
8
2
-12
-20
-21
-20
-6
-7
-8
-2
-15
-12
-25
-5
-10
20
-10
2
-24
-18
5
7
2
-16
11
-21
6
13
8
8
-17
13
6
10
6
0
-23
-13
-17
12
23
-13
11
25
4
10
-5
12
4
-1
1
-17
-10
16
-24
-5
-14
11
0
-2
-2
0
0
5
11
20
24
-10
-35
-29
36
0
-20
-20
-24
31
13
25
-7
15
18
14
5
10
5
15
17
12
-13
3
18
-37
-42
6
39
77
-34
-54
-66
-3
76
3
-41
-43
5
109
8
0
1
-12
46
-9
-4
-32
-21
-4
-7
-28
-7
7
48
3
-18
-51
-11
21
-2
10
-12
-13
8
1
-13
-10
-21
24
-1
-1
-13
-1
2
3
-27
-24
-31
0
25
10
-4
-28
-16
-1
1
14
-9
-22
-7
10
-12
-3
-2
-4
14
-4
-9
0
11
76
73
1
7
0
30
25
-14
-21
-35
-40
-26
-16
-16
-9
-21
-37
-15
-7
-19
-32
-1
4
4
3
29
15
-10
-5
-7
5
8
-21
2
9
6
0
-19
-8
17
9
-3
2
19
3
-3
-8
-24
0
14
50
27
21
32
16
35
20
12
-12
-11
-3
-16
-12
-15
5
13
-8
-6
-13
11
21
10
-29
-7
-16
13
-10
-24
-22
-15
23
23
22
24
10
-14
-10
-5
-9
4
3
-6
-1
-22
10
5
-19
-24
-2
-6
-3
22
14
-7
-19
12
18
2
-24
8
37
34
15
0
7
27
22
20
11
-34
-23
-4
7
10
-2
16
5
9
-8
-5
-15
0
-28
-26
-26
4
4
0
-11
-13
14
27
16
13
-19
-15
-2
12
15
-16
9
19
-17
-24
-10
0
20
-9
-15
12
23
39
20
-1
-9
24
1
2
0
-8
-5
-2
8
-9
-6
11
21
8
14
11
19
2
-3
12
-9
-6
19
-6
-7
0
21
26
0
7
18
24
24
24
-9
-1
23
22
8
-3
14
-4
14
16
3
-17
-18
6
4
3
-30
-11
16
1
4
4
40
42
24
1
-12
-2
-6
-40
-8
-9
3
11
4
13
1
6
43
23
1
9
42
3
13
-7
-21
-44
-26
0
15
-15
15
2
14
1
-15
4
24
22
16
-14
-27
20
11
25
-5
-17
4
-24
3
8
11
27
-21
-24
6
-1
19
10
1
1
-10
-6
0
12
-24
-3
-3
1
4
4
15
5
-1
-7
18
22
-2
11
10
19
14
-11
-8
9
8
27
21
3
12
20
-1
-17
-8
5
1
-7
-37
-32
12
9
9
-9
-5
37
2
-2
7
-14
-12
15
34
1
-49
-51
-36
-25
-45
-11
-51
-21
-40
-65
-19
27
-24
-42
-53
-12
19
3
6
-7
0
-2
19
15
4
7
5
10
0
-5
13
19
-19
-21
-48
-35
19
-26
-6
-10
-14
21
15
1
16
29
6
1
-5
-14
20
9
-9
-24
-28
-16
-14
-5
-7
3
10
-4
20
20
42
31
1
12
21
2
-24
-9
39
1
8
6
-3
45
14
18
17
9
59
47
10
6
0
21
-34
-24
16
-6
10
9
7
1
-14
-14
13
3
17
3
16
37
-8
0
-1
34
37
0
-9
-1
10
1
-6
0
-5
-3
18
11
19
4
4
25
39
46
1
-5
35
28
53
7
5
46
19
16
-1
21
19
-8
-16
-13
0
-7
1
10
6
-24
0
9
-34
-36
-34
-5
13
-14
-25
-38
-7
0
15
15
-25
-5
5
-4
-11
-5
1
3
-21
-1
-6
7
6
8
-5
4
-1
0
-10
-12
35
-5
-34
-23
-11
-40
-31
2
-12
16
4
20
-7
-3
8
14
11
18
11
7
11
-7
6
-4
-16
22
-2
-4
-20
12
14
13
4
6
23
14
-2
-14
-21
22
-20
-11
-8
34
32
-30
-15
19
12
-2
35
24
6
-24
0
-11
-32
-21
-9
11
-19
-3
7
-4
13
-16
-11
8
15
15
14
13
7
-5
-1
-7
-8
-7
-15
-4
18
9
1
6
1
-23
-14
-2
-6
29
-52
-24
-1
-10
24
0
25
24
2
-5
1
1
4
-12
0
30
-3
6
-9
-8
8
25
-9
-6
20
-13
-1
-24
17
23
-32
-21
-12
21
8
-3
7
-16
-8
-4
-22
-31
-15
0
7
-12
-2
2
2
16
-18
11
10
19
-22
-16
-16
-18
-25
-10
-13
20
-26
13
23
-21
-14
21
5
26
27
20
10
-9
13
25
-7
1
8
44
0
-11
-9
35
31
-12
-1
3
-11
-22
26
-4
-27
-9
15
-9
20
33
23
-29
0
-7
-15
3
-4
15
14
4
21
5
10
25
22
17
-8
-16
-28
-17
-9
-4
-1
-13
-44
-51
-15
-14
-15
-26
-6
-64
21
-13
-32
44
64
25
37
-1
43
74
-4
8
-13
-36
-22
5
17
13
-14
-36
11
14
-16
-20
13
-7
14
-8
5
22
5
43
22
-9
-9
19
-25
-25
-19
7
-5
-7
-2
9
12
-9
3
5
-5
22
9
13
17
10
4
-2
-8
-12
2
0
3
2
4
-6
14
21
-27
-18
-20
17
13
-32
-38
-3
29
-4
-33
-22
15
26
21
-17
-40
-5
4
20
-39
-38
-21
0
8
11
-9
-4
8
-3
-18
-9
-9
-5
4
11
11
-7
-13
21
-3
-24
-14
7
-4
-4
-6
-11
15
-13
-19
-4
8
6
12
-8
0
12
27
4
-21
23
-16
-12
15
-13
25
-15
9
15
9
2
-12
34
12
-6
-26
-18
-3
-9
-4
13
4
-10
16
-11
9
17
3
5
-8
-17
11
14
-16
0
7
-4
-6
-9
-25
-14
-23
-11
-12
-26
-25
-21
-2
-22
-9
-15
-11
-16
-26
-15
-6
-21
-2
-27
-2
-8
-20
-8
0
-15
-3
-20
-8
8
-10
-6
6
-7
7
-4
-7
0
3
6
0
-15
10
-12
9
-6
-7
-4
6
-9
-10
-6
-25
-11
-9
-19
-16
-26
-11
-4
-13
-11
-25
-26
-3
-17
-23
-11
-16
-19
-15
-9
-23
-13
-26
-5
-23
-22
-10
-5
-7
-12
-12
-21
-9
-8
-10
-15
-22
-12
-3
-22
-25
-25
-3
-27
-25
-21
-26
-2
-7
-25
-9
-22
-7
-16
-18
-14
-18
-8
-5
-3
-17
-21
-14
-21
-10
-26
-8
-13
-11
-5
-6
-19
-8
-5
10
1
-10
-2
-22
-23
-16
-21
-12
-26
-20
-6
8
-6
-6
-23
16
-23
-20
-2
-13
-13
-10
10
-25
-7
-15
-16
-20
-25
-24
-25
-8
-5
-6
-16
-4
-15
-4
24
-6
-20
-14
-5
-8
17
-6
-6
-10
-5
-11
-19
-17
-24
-16
-5
-9
-3
-15
-4
-18
-6
-19
-19
-16
-8
-25
-27
-14
-13
-25
-11
-14
-14
-17
-9
-20
-27
-14
-5
-6
-3
-3
-16
-6
-13
-21
-14
-26
-5
-23
-4
-13
-17
-21
-11
-19
-21
-9
-26
-14
-9
-27
-3
-4
-9
-15
-14
-24
-4
-23
-2
-25
-19
-7
-21
-26
-24
-25
-7
-4
-11
-20
-9
-7
-28
-3
-16
-23
-5
-14
-26
-24
-21
-20
-16
-24
-13
-26
-7
-20
-25
-27
-3
-23
-16
-3
-21
-27
-10
-4
-21
-9
-9
-25
-21
-2
-24
-20
-2
-12
-20
-26
-27
-19
-8
-11
-23
-6
-6
-5
-17
-17
0
-8
-19
14
-5
11
-3
-18
-26
-21
14
-8
-13
-12
-6
4
-23
17
-7
-21
-14
-4
-15
-23
-13
-9
-15
-12
-5
-17
-15
-22
-25
-18
-27
-7
-23
-20
-25
-2
-26
-5
-23
-22
-27
-22
-13
-17
-17
-6
-14
-12
-4
-22
-15
-8
4
-1
-9
-2
-15
6
-10
-10
-14
-7
-12
-9
6
-16
-10
-20
-1
-19
-2
-12
-8
17
-1
13
6
9
-7
-3
-18
-6
-12
8
2
1
0
-6
-11
-10
-20
12
8
-7
-6
5
34
49
16
-12
-20
31
4
-29
2
-12
-19
-31
-15
3
-7
-12
17
-19
-35
-20
9
6
-23
26
23
21
26
32
-7
-9
28
29
-3
-9
-5
-15
-16
-5
-2
-13
-8
-8
1
-18
-11
-5
5
-8
10
31
-18
27
-4
-25
1
4
18
-29
3
9
-4
-19
19
22
0
-4
16
43
-5
-33
-9
-1
-7
-6
-2
8
14
13
-1
16
33
37
0
14
8
2
10
9
10
-15
-38
-13
10
0
-3
-27
0
9
27
16
-68
-10
16
10
25
22
51
10
-15
4
46
40
-2
18
-11
-2
12
-4
-11
-22
-26
-14
12
11
10
-46
-31
-30
-39
-26
-26
0
-35
11
-5
-12
-28
-25
16
10
-10
10
32
-8
-14
-3
20
6
-8
-27
20
4
22
-11
2
22
0
5
24
24
5
18
8
17
5
4
17
18
22
18
13
4
14
4
-4
-18
-31
-8
-14
-17
6
14
-12
-6
20
27
16
-15
15
23
-11
-8
12
0
-1
-22
2
7
-5
-13
-4
-7
22
16
32
14
24
0
-5
-21
13
27
4
-7
12
3
16
7
-4
-56
1
-8
-17
-46
-65
-46
-57
-52
-12
61
-9
-22
-6
40
49
51
11
-21
31
23
27
9
-37
-28
7
0
-26
-46
-57
-46
-34
-33
-9
-2
-4
1
1
12
-11
1
45
6
-28
9
14
-7
-11
32
13
-17
-7
-8
-20
-19
-41
12
-2
-6
20
24
9
21
14
-3
-18
11
35
14
-16
4
8
2
-18
-14
-25
-20
-5
10
-7
8
-2
-36
-63
-46
-5
-4
-26
-36
3
23
-12
-42
-22
35
14
-9
-21
8
39
26
31
-3
52
13
12
44
11
-5
-13
6
33
-10
4
-8
21
5
-16
20
4
-6
26
40
17
-3
-12
-5
8
-7
4
11
0
-39
-60
-29
-33
19
-34
-11
-9
1
11
-9
23
-2
-5
9
13
26
1
14
7
42
49
31
48
7
10
10
6
18
4
11
9
-12
-16
-3
4
13
20
-7
-48
-52
-22
3
14
-27
-18
36
47
16
3
0
23
-6
-36
-15
-1
9
-21
-33
4
-25
-40
-18
10
-6
-12
3
23
9
-27
-18
20
22
13
-17
-6
-6
-10
-10
-16
-8
-11
-3
-31
-12
-20
-24
-20
4
-14
-2
9
27
16
-25
3
19
15
2
-42
12
13
-7
-34
-6
6
-1
-9
-39
8
9
-16
-23
-32
-11
-32
-24
3
-5
-16
5
2
13
6
2
7
17
-4
7
-3
5
5
-22
-19
3
0
-14
-13
-1
0
-9
-5
7
-7
-3
0
15
-10
6
9
16
8
9
-6
19
-6
-8
6
-10
0
1
15
-14
0
-2
-31
-16
14
9
8
-3
-5
5
-8
-8
-15
-13
-35
-24
-19
-4
1
-29
-28
-1
-16
0
-31
-24
10
-7
-27
6
-13
-1
-29
-5
1
0
-21
15
2
18
23
-5
10
26
25
9
-25
19
8
-8
3
-27
3
26
3
19
8
3
-16
-5
18
-22
-11
5
2
-1
-29
0
-7
-10
-38
-8
9
-13
-42
-26
-3
-25
-15
-13
-14
-12
-14
-6
12
6
11
1
2
-3
19
9
12
-17
14
46
1
-6
-6
-8
6
-23
-1
-16
-33
-18
3
10
-2
8
40
-71
-32
26
62
60
-13
59
16
37
40
29
18
11
10
37
35
56
40
6
-66
-20
55
61
-8
-56
-19
-10
1
12
37
0
11
42
34
39
6
9
31
13
3
19
9
-17
-16
-10
7
10
-4
18
22
-1
14
-4
0
-10
-4
-17
-25
5
0
-23
-22
-18
-16
-7
-28
-11
-9
-8
7
2
0
-7
-6
2
12
23
10
-9
-19
21
11
34
17
-28
12
28
21
29
-22
-1
28
9
7
-10
-21
11
-2
9
0
-9
11
-7
-35
-25
-9
3
5
-17
-16
-2
5
-19
-3
-18
-42
-23
-6
8
21
-15
4
8
4
11
1
30
45
-28
-34
-6
33
68
-31
-38
-8
11
73
-2
-6
-31
-24
73
20
5
-12
-40
-11
-14
1
-33
-7
1
-4
-28
-15
4
23
2
8
14
-18
3
6
2
38
33
19
14
-22
-22
11
16
-3
-11
15
14
28
-12
-23
11
20
20
6
0
26
17
41
12
-13
42
39
12
-4
31
-53
-30
2
-5
-2
-17
-11
-6
-14
-14
5
23
10
28
7
11
-15
24
-8
3
40
33
20
9
11
-4
-14
-13
-24
12
11
36
30
7
0
-28
-3
5
1
-17
-15
7
30
-6
-1
-22
0
21
-3
24
-1
12
15
3
23
-30
3
11
-6
-9
-16
6
23
4
-17
7
17
29
-7
-1
22
28
24
-14
13
24
46
25
-6
0
-38
-10
19
4
6
-27
3
1
-4
-14
16
6
8
-17
-15
-17
-9
40
-9
11
34
53
48
2
-12
34
28
33
25
11
-24
-11
3
-10
7
-13
-9
12
2
0
-12
20
-31
-11
7
-50
-66
-37
9
13
-23
14
11
4
23
-15
11
9
-17
18
-21
4
10
-26
23
-13
19
9
3
13
21
12
6
6
3
-11
41
31
37
14
-7
-10
7
12
-18
-16
0
8
14
-14
-8
1
5
-4
-4
25
8
8
16
29
3
5
-10
17
52
-18
-3
-15
0
27
17
12
-11
22
13
21
-10
-11
10
-3
30
11
8
21
40
-18
-27
15
60
90
-9
-12
5
82
69
-23
-9
-25
30
42
-45
-19
-67
-2
57
-35
-31
-9
-13
11
13
6
12
32
58
-10
1
-24
-3
27
-1
16
0
4
4
-16
-5
-33
-28
-5
28
22
11
5
41
3
3
-20
14
26
3
4
-11
-8
0
5
-2
-11
-5
-28
30
-9
0
8
1
31
33
49
19
6
46
60
47
18
14
40
21
4
-19
-3
14
-7
-16
-9
-10
17
-1
-6
0
-11
-28
-57
-39
-9
15
0
-2
21
-19
-10
-8
10
20
-20
-13
25
21
1
-2
-15
11
19
0
1
27
-2
3
-18
4
10
24
2
-3
-15
-19
9
0
1
-7
-21
6
18
22
-10
-29
19
24
14
-8
6
21
-7
-47
-34
12
-8
-5
-9
-16
-1
-20
25
46
30
-2
0
-18
12
4
-12
-12
21
17
33
27
-6
12
-4
-29
-23
4
12
22
-10
28
1
13
15
-28
21
14
24
-29
18
22
38
35
14
5
11
20
6
5
-13
-35
10
-2
17
8
13
5
4
13
-17
2
-9
6
0
6
-8
15
-2
0
24
19
-6
-13
0
-10
-10
1
7
14
-7
-1
-1
12
10
-14
31
33
24
-3
13
34
18
18
-13
18
18
-5
0
12
13
4
-12
-11
-4
-5
7
2
1
4
-22
8
0
21
0
-17
1
9
10
-13
-8
10
8
22
0
-1
5
10
-18
2
7
14
11
-4
1
-10
29
-14
5
-2
-3
18
-22
0
-2
15
19
-4
2
9
8
-1
5
-8
0
-15
-2
-10
3
5
-18
27
29
29
8
21
41
20
25
10
18
14
-31
-17
2
-7
-1
-3
5
7
4
9
-9
-12
-4
-6
0
1
-9
9
-11
-12
1
-11
7
5
6
1
-2
8
-12
-12
-21
-25
-3
2
-24
-14
-1
4
11
-1
-13
28
25
1
28
-1
20
-6
-5
10
2
6
1
8
6
-2
2
1
32
19
9
-14
-6
16
17
11
-5
-19
-4
-10
-1
-17
-26
-5
-4
7
-3
7
-2
10
49
27
59
-7
-86
0
5
33
2
-60
-20
-13
-8
19
-2
15
-12
-20
-6
-12
-29
-62
-42
1
19
3
3
0
23
-19
-17
-33
6
10
-6
3
0
3
2
-10
10
-18
-11
3
10
-4
-16
-2
-2
7
4
12
-4
13
28
34
-10
-8
7
28
7
-16
7
3
7
-4
-3
-7
-7
27
7
24
11
-12
5
1
-3
-13
-24
-29
-18
27
16
-24
6
0
33
24
0
-4
60
13
0
-9
13
35
-2
-9
15
-1
2
17
6
-6
26
4
19
-19
-9
23
33
21
-26
-7
1
34
9
-9
-7
13
5
-5
8
-3
-2
-5
3
16
-11
-6
-16
19
2
10
40
-5
9
-11
18
36
6
5
-3
23
10
12
20
13
10
14
-2
8
8
13
7
-9
25
2
-34
-35
-29
5
-4
-6
16
-30
8
2
-8
15
-25
9
0
-10
-1
-24
-6
-26
-21
-8
-23
-10
-24
-17
-26
-4
-7
-4
-26
-3
-3
-25
-26
-5
-1
-23
-3
-21
-14
-2
-11
-10
-22
-1
-1
-4
-11
-7
-5
-10
-5
-12
-7
-21
-21
-1
-5
-17
-25
-4
-21
-9
-17
-22
-21
-1
-15
-15
-2
-20
-15
-24
-4
-25
-25
-18
-5
-7
-17
-8
-7
-8
-13
-5
-15
-20
-10
-4
-21
-25
-8
-20
-18
-13
-16
-26
-23
-13
-13
-24
-11
-6
-19
-17
-20
-23
-5
-22
-26
-3
-3
-17
-8
-1
-22
-24
-5
-14
-25
-15
-21
-12
-3
-25
-15
-22
-7
-4
-21
-16
-16
-4
-20
-19
-9
-8
-19
-2
-15
-9
-15
18
13
22
-12
-8
-19
-17
-24
-17
-7
-12
22
-14
-1
-7
-15
-24
-19
-14
-8
-13
-24
-21
-4
-10
11
-1
6
-4
-12
6
6
1
12
-8
0
-10
-5
-6
8
-4
5
-4
-11
4
3
7
-4
-10
-25
-13
-4
-20
-15
-17
-11
-10
-26
-4
-23
-20
-16
-4
-21
-17
-2
-20
-26
-25
-11
-20
-24
-18
-13
-23
-10
-22
-2
-23
-25
-17
-11
-4
-23
-24
-21
-1
-7
-25
-19
-13
-20
-26
-19
-19
-22
-13
10
17
-11
-3
0
-4
-4
-9
-16
-12
-3
-16
9
6
-21
1
-16
2
-15
-19
-22
-11
5
1
21
0
0
-1
-2
-2
-8
-5
-24
-18
-17
-21
-2
-8
-24
-3
-26
-4
-26
-21
-15
-17
-8
-7
-25
-18
-24
-22
-3
-22
-15
-11
-13
-21
-5
-13
-23
-13
-17
-22
-2
-3
-8
-14
-16
-13
-3
-3
-23
-22
-10
-15
-5
10
-14
9
-4
-13
3
1
-12
16
-23
0
0
-26
-15
-14
3
0
-12
-15
-3
-19
-15
-14
-4
-16
-17
-11
-22
-22
-13
-18
-13
-3
-2
-8
-9
-10
-19
-23
-3
-8
-22
-23
-2
-21
-4
-13
-15
-22
-8
-20
-7
-13
-26
-4
-10
-24
-23
-19
-24
-18
-7
-17
-20
-18
-23
-17
-6
-6
-25
-19
-21
-1
-15
-5
-25
-8
-11
-6
-16
-14
-19
-19
-9
-20
-7
-20
-12
-11
-15
-7
-8
-9
-22
-22
-21
-13
-22
-7
-2
36
4
-5
49
1
64
29
0
-53
-22
51
-7
-26
-35
3
24
-26
-38
-15
28
-1
0
-8
1
-71
63
24
6
45
31
69
13
-12
-29
-46
18
-25
-21
-27
-12
-22
-35
27
20
59
22
-23
-38
-10
-58
76
46
-7
1
-93
92
31
7
23
-52
70
28
-29
-68
2
-6
-4
1
-43
33
-38
-49
-59
-25
7
0
-33
1
8
68
2
-20
31
46
45
63
18
-15
-38
-19
33
11
-5
-57
-16
68
6
2
-63
-43
-24
-8
15
44
105
-33
-39
8
57
86
13
11
22
-4
1
50
7
-28
-5
-17
50
0
1
-19
-41
17
47
55
-18
-93
45
-3
24
95
-92
12
-28
-41
-60
40
-81
-16
-26
-14
33
-162
-88
-52
8
29
-9
19
21
23
23
-26
15
16
-21
27
-8
-27
22
-11
10
-8
-18
-8
-8
13
4
-11
9
-19
7
-22
2
22
-42
-54
53
10
27
10
-57
74
-5
17
88
14
57
-18
-52
-16
-9
-6
-56
-15
-71
5
-38
17
9
23
31
-25
-9
-29
10
51
-17
-7
-13
-13
43
3
-1
3
-12
39
23
-7
-11
18
22
15
-7
19
-18
-28
-14
12
-3
13
-80
-77
4
-34
-2
-30
-10
0
-4
-13
-34
29
-3
-5
17
31
-42
-16
9
17
25
-4
0
-2
25
36
-15
-1
-8
-13
-24
-13
-9
4
-25
8
-19
-27
-1
9
26
-8
18
20
33
61
-16
0
26
31
52
34
19
14
16
-13
40
12
-17
-14
-43
33
40
34
-7
19
-15
21
20
-49
-60
-31
68
35
51
-46
63
38
-5
-13
-70
77
3
-27
-43
-54
-111
-89
-28
-46
-26
3
-26
-5
-26
22
12
-34
6
-31
38
46
-11
-89
-64
29
-36
-22
-110
-13
12
-1
-51
-63
-30
-33
-7
-33
16
-64
-6
35
3
14
41
75
37
-20
-22
-42
29
56
-26
-87
-19
26
8
-39
-61
1
38
62
27
70
27
56
16
30
33
-25
-81
-21
45
-27
4
-38
28
30
15
5
-13
69
-7
16
1
12
-21
44
23
-24
-17
14
27
-40
-4
13
-10
-50
-25
-11
3
17
-27
-25
-19
-3
0
28
47
26
54
2
29
27
-24
-40
25
34
-12
-34
-8
5
-17
-23
-38
-4
12
-19
-40
-29
10
28
42
44
56
89
33
33
-11
-14
-12
36
19
-26
20
31
-26
-46
-35
19
26
3
-24
0
3
-4
3
5
-5
-22
7
-34
-12
-4
24
3
-34
-6
-9
-7
12
13
39
-9
-16
-3
11
-8
-51
-27
21
11
-7
-24
8
48
-95
-45
11
15
-13
-57
3
1
-37
16
28
62
-23
-18
4
72
0
-44
-26
15
23
-26
-34
-1
45
-1
-9
-36
-45
-56
56
18
-17
-16
-27
-30
-58
-9
28
43
-26
-59
20
29
-15
-15
-19
48
2
-24
5
-24
0
-17
-24
-10
-24
16
12
-27
16
21
18
27
-15
25
25
12
28
-3
-18
5
-15
-14
-7
19
8
-3
-26
-44
-1
27
7
2
-7
17
0
-18
24
47
5
6
-11
11
23
9
-19
-14
7
2
-32
-26
70
72
-1
-11
-5
27
30
-56
4
0
41
-7
-35
-8
31
29
3
-44
1
-13
-7
-15
-17
-15
-2
-74
-57
-2
-66
-53
50
62
-14
39
-14
-9
18
-2
32
24
92
2
-10
0
-2
0
-17
-64
-27
0
79
85
-33
-5
24
18
19
-31
35
19
-10
-6
8
16
42
38
-8
-44
50
2
2
-12
-61
-9
-25
13
5
8
-3
-24
27
-32
-14
6
38
54
-50
-4
4
-12
8
-20
7
5
-23
-35
17
18
38
-45
-74
-46
28
9
-44
-29
10
47
-17
-43
-42
30
51
-69
-58
-43
14
27
-39
-23
6
-20
7
34
27
-25
-21
-4
16
-48
-7
16
16
8
-46
20
45
4
0
-35
-1
9
5
-4
2
6
2
38
-51
-69
-93
-62
-62
-12
-49
-31
-25
10
-3
-37
13
-18
29
10
-39
8
11
15
4
-34
-8
45
42
-30
-15
-73
-9
7
-6
9
-65
-23
-26
75
16
-39
-36
-16
49
-36
-28
-19
73
-12
8
29
69
45
-12
-5
-18
-25
-24
-12
-24
-15
-27
-11
-8
-23
-21
-23
-3
-10
-17
-6
-13
-14
-22
-19
-21
-27
-18
3
-16
-14
-3
-12
-8
-11
-24
17
10
0
-3
-9
8
0
-9
-21
9
-5
-11
10
9
6
3
-11
-25
-18
-8
21
-19
-4
-26
-14
20
-9
-19
-21
22
-11
-11
-5
-25
6
-26
-18
-20
-11
-20
7
6
-5
-9
-24
-28
-12
-5
-9
-21
-3
-27
-21
-11
-3
-24
-14
-25
-12
-26
-13
-24
-16
-11
-14
-17
-3
19
-27
-10
-20
-14
9
-12
-9
-19
-11
-27
-16
-26
-5
-26
-12
-16
24
-5
-16
-7
-16
11
-16
-7
-23
-19
-20
17
7
-3
-2
21
-16
-26
-22
-21
-23
-24
-11
-13
-25
-20
-18
-11
-19
-23
-11
-26
-19
1
20
10
15
-24
-13
-2
26
-17
-17
-10
-9
14
-20
25
-21
14
-12
-2
-20
25
9
-16
-21
-17
-13
-15
-8
-19
-24
-5
-19
-24
-15
-21
-16
-26
-8
-20
-21
-23
-8
-13
-11
-21
-23
-10
-6
-26
-7
-25
11
-15
-7
-8
-26
-12
-27
-18
-7
-15
-22
-21
-26
-3
-19
-27
-5
-4
-12
-14
-17
-13
-16
-9
-24
-25
-12
20
9
22
-5
-10
12
-18
11
-21
-9
-6
-10
19
-11
-18
-3
-7
-26
-18
18
-23
-21
-20
-11
-10
-24
-12
-22
-26
-2
-13
-8
-3
-14
-14
-11
-10
-17
-15
-20
-14
-24
-15
-17
-3
-27
-19
-25
2
-3
-10
-12
-16
-6
-2
6
-23
-7
-19
-10
16
-19
-25
-21
-13
-3
-23
-16
-11
19
-6
-25
0
-15
-10
18
-16
3
-6
1
6
15
18
25
-8
21
-8
-24
-6
-10
-16
-3
0
-14
-6
-27
-26
-26
-12
-9
-24
-13
-4
-17
-6
-6
-21
-17
-13
-23
-4
-10
-11
-14
-4
-20
-6
-7
-18
-11
-25
-22
-14
-20
-17
-11
-26
-15
-5
-1
-9
20
-6
-2
20
-24
25
-1
16
-3
-12
5
-25
-22
-3
-7
-20
12
-15
13
13
14
5
-8
0
-25
24
-19
11
0
3
10
-10
-11
2
2
-4
8
-8
-3
-4
10
-4
-28
-17
-7
-20
-11
-4
-5
-23
-7
-5
-23
-21
-20
-26
-19
-13
-21
-3
-16
-26
-8
-10
-6
-19
1
-20
-17
-6
-21
3
-13
-9
-21
-11
-7
-11
7
-23
-5
-8
-12
2
-3
-8
4
-15
6
-12
8
17
6
-25
-12
-27
-18
21
-9
6
-16
-26
-24
26
13
-2
-14
6
19
-25
-20
19
6
-26
-26
-25
-22
-3
-20
-22
-9
-26
-23
-13
-24
-15
-3
-22
-12
-19
-17
5
-7
-14
-16
-27
-5
-18
-8
-12
-25
-15
-20
-17
19
9
-18
-8
-23
14
12
-23
-3
-4
-16
-21
18
-8
-19
-16
-16
19
-4
-3
-11
-10
-21
11
-7
-10
-20
22
13
-26
11
5
-22
-13
6
14
10
-19
-7
27
25
-26
-26
26
11
-26
-2
-24
8
5
26
-20
-18
17
-6
27
23
25
23
-6
17
24
-8
-21
11
-6
-26
11
17
2
-12
-10
-18
-3
-5
-9
16
-23
-19
-22
-16
-10
-6
-15
-3
-4
-17
-9
-6
-15
-7
-15
4
-7
27
-21
-3
-4
-27
-16
6
25
-20
-24
-25
-26
18
-13
-19
-15
-21
-6
-24
-18
-13
-13
-11
-5
-7
-4
-25
-3
-19
-16
-11
-19
20
-8
-7
-6
4
-15
-24
-26
-12
11
-25
-27
-7
-3
-16
-5
5
17
18
-24
-24
-18
-17
-26
-20
-12
-21
-22
-16
-15
24
-11
-10
-3
-7
17
-8
-11
-6
-26
-8
-10
8
-14
-25
-27
-5
-9
-21
-7
18
-23
-13
-9
-16
-16
-19
-21
-9
-6
-13
10
-9
-14
-5
-15
-24
-24
-5
-18
-13
0
-26
-22
-4
-7
22
-11
18
15
-13
-13
18
5
6
3
-19
-24
3
8
-13
-8
22
19
24
-19
-15
-17
-7
-11
-17
-12
-10
-11
-5
-10
-12
-24
-4
-22
-17
-11
-8
-20
-13
-7
-14
-3
-13
-15
-22
-19
-3
19
-16
-20
-3
-4
23
-18
16
-17
22
19
-6
22
-17
-20
7
-14
3
-25
-14
7
25
21
-9
-23
16
-10
-3
-7
18
4
-26
-13
-3
-7
-16
-19
-11
-23
-19
-9
5
23
-8
0
-12
5
-8
-8
3
6
-13
6
22
13
-34
-10
21
-2
-3
-34
1
15
-15
-41
-22
-7
-31
6
-16
1
-21
-26
1
-2
-2
-10
-4
13
13
-20
-8
16
22
-3
-17
-2
19
-38
-26
-32
-15
-23
-28
-12
-15
-23
-29
13
-25
1
-2
2
-5
11
-16
-11
-1
5
-6
-39
4
6
26
-3
-5
0
7
15
-2
-8
1
-23
-15
-7
-31
-12
-7
6
9
-28
6
24
30
18
-23
11
29
0
6
-11
-7
-5
-41
-50
-18
3
-1
-41
-18
-24
-9
2
-17
-6
-3
-7
3
31
21
-6
16
11
22
3
-5
12
1
-16
-52
-28
5
-6
29
-12
24
24
29
20
18
3
4
19
-16
9
-31
-4
3
16
-32
16
10
0
37
16
33
2
-18
27
-18
-23
-14
-1
15
-8
-18
-3
-25
11
15
-11
15
-4
17
2
-19
18
6
-11
-20
-21
11
-5
20
-12
-8
-22
-9
-23
-2
10
-13
5
27
23
2
-11
15
39
6
-6
-1
15
-3
-23
-12
-1
-10
-10
-35
-17
-7
-48
-13
-36
-6
-27
-54
1
1
15
-21
-17
1
4
27
21
5
-35
-16
-6
-2
-30
18
-21
-66
-132
-84
-11
-10
-6
-29
-26
-28
7
53
3
-60
9
8
-1
-35
-7
19
-5
-19
-23
-7
-3
-24
-33
-18
-22
-20
-25
-32
-38
-51
-15
-6
-14
-42
-35
23
1
4
30
12
-7
-16
-7
-7
-11
-10
-29
-1
-12
-38
20
-6
12
-21
6
23
22
34
-19
24
-13
-1
-8
-16
-1
-25
-16
-44
-13
-10
-11
7
3
15
2
-24
8
-29
-6
6
-18
-33
-29
-27
9
-19
-35
-41
0
-2
31
11
0
-13
7
-5
-3
9
14
27
17
5
-10
15
30
7
-3
5
11
0
9
-5
18
6
-1
-27
5
18
-16
9
14
30
53
56
41
7
-3
-2
34
54
-14
-32
-25
17
29
0
-4
-2
-1
-9
-3
10
33
21
-10
0
-4
-18
-22
-11
2
8
-33
2
28
-12
4
-6
3
4
-13
-31
-24
-37
-5
-33
-44
-28
-2
-18
22
41
9
-7
-18
30
5
-10
4
24
-9
-26
-28
-12
3
6
-22
-3
-7
-12
7
15
25
14
51
-20
17
15
-16
-21
12
14
7
-13
25
11
-2
-12
-25
-2
2
-24
-13
-6
-7
24
36
14
-4
22
42
16
19
7
6
5
-7
-9
13
16
-7
-1
-27
-4
27
17
-25
-3
9
-1
16
0
15
20
-5
-17
-4
-14
-2
14
-15
6
-11
-8
-4
11
34
3
-6
3
13
-16
-33
-15
20
-4
-25
-21
2
33
-52
-10
0
-13
2
-63
15
25
-7
14
9
61
-1
-18
-4
31
5
-34
-5
-11
11
-1
-21
-8
10
41
16
25
17
-13
41
13
0
-8
2
-11
-11
-18
5
0
-19
-55
-1
6
-9
6
-22
27
21
2
6
-9
5
19
0
14
18
6
24
5
11
27
9
12
16
16
26
3
25
1
15
12
12
5
2
31
15
15
-2
9
7
35
1
-10
10
22
30
0
12
22
17
11
-16
-6
21
-3
-7
-16
21
-10
-7
-36
9
17
9
10
-18
-4
-18
-15
18
13
34
-14
-29
-1
20
42
12
-25
7
-10
-1
-3
-32
-26
-39
-84
-60
39
-52
-65
11
57
68
51
21
19
32
43
27
51
89
15
-15
-3
1
12
-22
-63
-14
-5
35
30
16
-12
-15
-25
-12
10
30
21
-11
-22
12
32
37
27
-8
-6
22
1
10
9
-14
3
-26
-22
-15
-17
2
1
29
-18
-28
20
49
51
-31
-5
-7
-13
-2
-23
1
2
0
-9
-14
5
19
4
-29
6
16
16
0
-16
6
12
0
-54
-31
6
37
-26
-46
-39
2
27
-27
-40
9
-12
11
23
27
3
2
-2
23
-7
6
-3
-7
3
-28
13
27
-11
7
1
13
11
17
-10
8
18
15
47
-5
-23
8
9
-27
12
-2
1
-17
-6
-4
-27
1
-17
-10
0
-24
-11
-3
-10
0
-12
-15
8
43
-25
0
-44
-20
-6
0
19
-2
8
11
37
5
-2
2
12
34
3
-19
-15
27
-9
-14
-9
0
5
-67
-16
-9
4
-8
7
7
13
-26
-16
40
51
-12
9
0
46
20
-39
-5
-13
-33
-44
-4
-8
-48
-25
-7
-1
12
-10
16
20
19
-25
-19
61
48
3
-1
22
25
5
-36
-17
1
-35
-20
-8
-17
-39
17
-21
1
-15
-10
-26
2
-1
-26
-4
13
22
-11
-7
-13
58
37
-19
-3
-1
19
-4
-15
10
0
-33
-28
-11
6
-9
-7
-8
-3
-12
-6
17
6
0
7
-9
9
-5
-27
18
10
30
12
-11
0
-12
-40
-18
-1
0
0
-23
-13
-9
8
12
-14
0
-7
0
28
-19
3
-14
21
11
17
-18
-22
15
-1
31
6
-16
-7
-6
-20
-7
-9
-12
14
-20
12
3
-11
-3
12
-11
-14
-14
-4
7
-5
-7
-14
0
6
-13
22
9
6
-8
23
5
12
23
-7
-4
-19
2
4
13
15
14
25
15
26
22
22
-13
23
-10
3
-13
1
1
-28
-28
-15
-9
-5
-5
8
-1
-16
1
12
2
9
-4
-14
21
0
-20
-16
-22
-7
-3
-4
8
10
-34
-37
-10
-14
16
-2
-7
-23
-20
-28
29
15
16
3
33
0
-18
-11
0
4
82
50
-7
-56
-54
30
26
49
19
-25
-25
-14
-11
2
-23
-3
32
11
6
49
23
59
38
13
18
24
14
4
7
-18
-19
-24
0
6
18
-13
-13
-28
-44
-18
27
36
56
41
28
0
-18
8
13
10
-29
-7
0
13
-12
-13
-32
-9
-25
-10
22
-13
17
15
9
-34
-25
0
13
31
-14
-2
-21
-18
3
35
78
-8
-22
24
20
-24
-4
9
12
5
-37
0
-10
-15
22
-16
-30
-21
-6
15
23
-25
5
-7
-35
-14
10
-12
-16
-32
-5
-7
-7
-9
21
-7
-10
-9
-3
48
1
15
-7
2
8
-30
2
-6
5
-9
-2
47
45
5
-57
-24
49
62
17
-61
-17
-38
32
29
-18
23
-17
16
32
52
16
17
40
14
3
-2
-17
4
-24
73
91
48
0
1
-17
-6
13
25
14
-59
-26
-34
-4
9
-20
7
-17
-29
-40
-7
-4
14
16
9
-9
-20
-19
1
-41
-20
-8
8
-26
-24
7
23
4
-18
21
-16
7
-2
-4
-6
-12
11
18
-3
-36
10
9
-26
-34
-51
13
-25
-26
-30
1
28
13
14
37
65
0
12
-29
18
56
-17
-34
22
18
26
-49
-4
4
12
2
-34
-10
8
-3
-29
-8
5
-1
-18
-27
46
18
-20
-37
-21
-46
-21
-2
6
-18
-24
-26
-31
-35
-41
-29
-45
-39
-23
-37
13
4
-9
-31
-27
4
34
18
-21
5
-20
-22
-11
-8
17
-23
-17
-38
-41
-16
-47
-64
-72
-51
-89
-14
-25
-23
-47
-70
44
49
24
26
58
-20
70
0
43
61
38
-43
21
42
48
-59
-2
38
24
26
-25
-29
19
19
3
-49
-40
-1
-65
-38
-17
10
9
23
14
-10
-26
25
14
13
-26
-9
20
7
-14
-27
-9
11
-11
-10
11
14
5
20
-1
-21
3
-1
15
28
-29
0
7
9
23
-39
-15
-8
8
6
-20
-20
30
2
-25
3
24
14
-34
-12
-45
-10
0
25
84
-8
30
24
23
64
21
19
-10
-14
21
-8
-28
8
-25
-32
35
22
21
20
45
-4
-5
-48
-32
-18
-10
-6
10
24
28
57
27
31
54
17
27
-5
41
42
32
-39
0
16
4
-17
-21
-17
0
7
27
26
26
6
21
40
9
27
14
11
47
-27
-38
8
11
-14
10
8
-39
-25
-1
-26
-10
-21
-1
1
-32
-17
-6
-21
-28
-8
-15
-12
-17
-64
21
-15
-2
-13
-43
0
0
35
-5
17
28
-51
11
-18
-24
-8
-72
50
20
16
-64
-102
-12
6
10
-50
-43
3
-25
-38
-11
-30
-28
-58
-26
-22
5
10
1
-18
-14
-24
-14
0
-4
-31
-37
-13
-20
-15
2
4
-14
-17
-23
3
10
-17
-22
-4
-46
-16
-58
-7
-59
-14
-71
-73
-41
-33
-45
-94
-99
-42
-40
-29
-28
-66
-53
-37
-25
38
0
16
-27
-18
-7
-29
-32
-51
-10
-43
-42
-30
-34
34
-27
0
-6
1
-36
-22
-3
11
22
-54
-43
4
0
0
9
25
15
6
-9
-22
5
-29
-6
-12
-26
5
18
-1
-22
-9
50
-13
-7
-2
-18
-21
-17
18
14
14
22
28
5
1
3
1
-11
-12
-12
-15
16
14
10
-19
-10
5
17
12
5
-11
13
7
22
38
-11
7
12
-4
-4
14
18
-9
4
13
-15
-13
13
28
18
-15
31
3
0
-23
-25
6
-17
-1
8
3
4
5
18
-5
10
11
-6
14
-1
-22
-5
8
12
-10
-18
13
9
-1
1
-17
22
13
23
11
-27
3
12
14
-18
-18
3
3
9
-8
-4
-10
-20
0
3
-31
1
-3
-5
2
-42
27
1
12
4
-47
-28
-26
-32
-15
-9
-13
-21
2
-13
-7
-19
25
29
6
-22
39
10
14
-2
-7
3
-8
-9
-13
9
-1
2
-8
2
12
0
-2
-10
-5
0
-8
6
-5
11
-2
-4
-8
0
3
4
-10
3
-3
-12
8
-31
-2
10
-10
10
18
0
-5
13
0
-18
-9
18
11
-27
-16
16
16
-7
-15
17
-8
-6
0
7
7
12
1
-16
-17
10
12
15
-46
8
13
-1
-20
-15
10
19
-4
-27
-39
11
-5
-8
-30
-19
-6
0
-7
-22
17
20
32
29
-3
-55
-4
-28
-46
-12
-57
5
-29
-26
-32
3
6
8
0
-41
-8
-13
10
8
-11
-29
-8
33
23
-9
-19
23
-7
-9
-8
-5
-2
-16
8
-5
-36
12
-7
-19
-25
-23
0
11
7
26
6
-4
0
17
21
-6
9
1
-19
0
7
14
-2
8
10
-10
-18
10
27
19
16
28
-53
-63
-18
22
43
-18
-21
34
21
47
9
2
40
11
32
27
21
32
7
38
19
-9
-7
12
0
7
-3
4
-15
11
-5
0
1
0
15
15
6
-3
-9
23
39
0
-12
-4
1
12
7
2
4
-29
-53
-49
-28
-30
14
-23
-6
-1
-18
8
6
26
31
14
28
46
30
18
14
32
21
34
38
28
11
11
13
5
3
16
-8
-18
0
-25
-24
17
17
7
-5
-49
-15
2
28
14
-20
13
36
19
13
-29
7
26
20
-9
-8
-9
2
15
-21
-20
12
22
5
-21
-3
15
17
-8
-17
42
38
-14
11
8
-7
-11
9
15
6
5
15
-3
-5
-13
-12
-10
-7
12
-25
-20
4
15
-10
-40
-20
-4
-3
8
-18
-50
-36
1
-13
-3
-6
-9
-2
15
17
-5
-11
30
20
2
-8
27
19
-3
-12
14
8
-4
-8
-18
-20
-16
2
25
4
11
-2
27
3
2
0
-1
11
-3
-8
-7
-6
19
1
-24
-25
-18
13
-1
-31
-43
-15
-6
5
-14
-6
-2
2
4
-4
-10
-5
13
5
-24
-2
-11
5
-8
-14
-30
-12
2
10
-38
-50
-44
-8
-40
-38
-28
-24
-4
-1
-14
-8
-16
30
19
0
-21
13
29
-4
-30
32
64
13
-28
-26
11
6
0
3
10
8
-1
-1
-3
11
-2
7
16
-10
0
-12
12
-6
-5
-2
3
-6
-4
7
-8
-28
-46
-6
1
-11
-35
-18
-3
0
1
-3
0
-3
-1
20
-21
-11
25
8
-19
-30
24
4
-1
-20
-21
-24
-22
9
23
-14
4
-2
25
13
1
-3
-12
-11
6
-5
12
3
-21
-25
-17
11
4
-23
-45
-24
-58
-55
-35
-64
-18
-35
-57
49
119
-9
-7
-25
10
30
4
-1
15
20
11
16
10
30
42
20
-36
-55
-56
-16
-4
-19
-6
11
24
23
-1
0
-16
2
27
-1
-4
-1
23
-14
-2
9
4
-16
-32
-6
2
-5
-2
9
-18
3
-4
16
-2
-19
10
-27
-18
-9
14
0
-14
1
-22
-4
-20
-6
-13
-30
37
-1
-34
-15
-8
27
-21
-14
5
5
18
6
60
37
-2
-10
45
44
35
4
23
78
34
12
-14
-29
-18
-2
-15
-15
-3
15
9
-3
-7
-3
22
21
2
-24
7
38
10
-12
-26
20
30
10
-18
-11
-9
-31
-16
-42
-18
-7
-19
26
-24
-1
13
-10
7
-23
3
16
33
27
-17
22
2
30
16
8
11
1
-10
15
23
-2
23
-23
-10
-5
-23
-15
-19
16
3
-30
-12
-23
11
13
-7
-18
7
19
21
-1
-28
15
22
14
3
6
8
-19
24
6
-2
38
53
27
-1
26
48
2
4
16
16
0
-1
0
-20
2
9
-3
-13
-14
3
-11
-28
-32
0
-13
0
15
-5
-8
-18
0
2
5
23
-19
-18
-18
2
21
8
-7
-5
-12
-11
21
-1
-13
10
14
0
-7
13
32
40
-1
37
13
17
4
-5
15
10
-4
-1
-6
2
7
11
2
-19
-4
4
3
27
-9
13
3
2
4
-20
24
9
-9
22
-2
28
14
16
5
-9
-3
12
27
-19
-14
-7
2
12
17
-14
4
-15
5
12
-34
8
14
-2
4
-11
30
11
0
0
-26
-20
-13
-15
-37
38
3
-1
2
-17
34
0
27
39
53
-21
-1
10
6
28
-32
-20
-3
-7
6
14
-22
26
-10
-7
-11
-23
-15
25
8
-12
-11
7
8
-8
22
26
17
-16
19
25
5
-13
-8
-6
43
15
8
0
-36
20
5
6
26
13
12
-10
2
37
46
0
12
18
10
2
-1
31
9
-7
1
-4
16
43
41
-51
-7
9
17
21
-42
20
7
5
-1
3
17
29
16
4
26
18
3
-3
-1
3
66
62
51
-23
-61
31
14
25
-16
-59
-1
-22
-36
3
-56
2
-16
0
9
34
11
-8
5
28
76
5
33
29
20
-62
23
18
29
0
-25
6
-7
-22
-12
2
-13
3
9
14
4
20
8
0
13
8
11
17
19
24
-11
-15
5
30
40
27
-10
18
12
17
21
12
-16
25
11
-2
-11
12
18
0
5
-18
-62
-67
22
23
7
-15
-20
59
34
45
-4
4
24
12
59
23
-2
5
2
27
-23
1
9
-3
-13
3
0
-6
5
-7
-18
7
8
47
11
5
-1
21
23
45
41
-1
-1
-16
8
9
4
2
-33
-86
-85
-106
-21
-50
-44
-35
-15
13
47
-13
-3
0
14
46
38
26
-19
4
23
18
29
20
6
-17
3
3
-4
4
24
18
-15
-28
-33
-6
-36
10
2
-10
1
-40
-11
-1
11
15
16
-15
11
27
10
8
9
14
10
-5
34
18
0
-20
-17
30
12
-9
2
11
6
-16
-4
-8
0
-8
0
10
13
3
-17
-7
8
-8
7
10
12
6
-24
-18
5
-4
-31
-14
-10
-7
-11
-8
-8
-14
-15
-8
-1
1
-16
-8
-8
-6
-12
-14
0
7
0
0
-21
25
11
-1
-25
-11
16
-12
-25
-15
-12
15
-16
2
-20
-3
-16
-19
4
-10
0
21
17
6
-8
-10
17
7
-19
-27
1
9
13
-14
-22
5
21
0
-17
-5
-10
2
0
-10
3
5
-10
0
-10
-7
4
21
-5
-15
-6
13
22
-3
-23
-6
3
8
-4
2
-11
5
-3
-1
-17
-9
-20
11
9
6
-16
0
25
21
-11
-18
-7
10
-1
-1
-5
11
-5
-7
-3
-9
1
-8
-4
0
10
-1
5
19
4
9
8
18
20
3
1
18
9
24
-8
11
17
8
21
4
11
0
-6
-19
-16
-3
-4
-20
-6
-2
-5
-12
5
13
3
-18
-16
18
12
-5
-24
2
2
4
-14
-7
-8
1
-21
-24
13
8
-6
-1
-6
22
40
-13
-8
-14
5
10
10
0
-22
0
14
8
-16
-11
6
6
2
22
7
-18
-47
-10
1
-13
6
-39
-17
28
-5
22
28
8
-4
15
-7
12
-12
18
11
23
32
-1
-23
-3
14
13
-19
-20
8
32
19
-10
-9
0
0
10
-5
-11
-27
9
-7
-1
4
-2
-9
8
-1
-9
-1
-1
28
5
-22
-12
-1
0
1
-16
-15
1
-15
10
14
-8
-1
-10
4
3
-14
-20
-9
-10
41
1
-25
-22
-31
35
20
-17
0
-12
24
24
1
-21
2
34
-3
-16
-3
-25
-2
-16
-10
-14
-9
0
-16
-14
-12
8
8
-14
0
-6
16
2
-4
-2
1
12
-13
-13
-7
-6
-3
-11
-19
-18
-8
4
0
-5
-11
1
-1
-11
5
-7
8
3
-20
-1
-19
18
10
-24
-15
-4
13
4
-7
-5
0
-3
-5
10
-11
-11
0
-23
17
3
-16
-23
-1
9
-16
-21
-12
-8
4
-8
1
-13
-15
7
-17
-9
0
-23
-11
-13
-22
-8
-22
-2
-10
-7
-12
-24
-10
-15
-10
-1
-9
-15
-22
-19
-3
-14
-18
-19
-16
-16
-7
0
-6
0
-24
-23
-13
-11
-8
-1
-21
-6
-19
-18
-18
-17
-3
-15
-14
-20
-17
-17
0
-14
-20
-6
-6
-2
-3
-6
-24
0
-17
-22
-23
-16
-5
-24
-21
-19
-22
-12
-15
-5
-16
0
-6
-20
0
-5
-24
-5
0
-22
-19
-16
0
-5
-17
-3
-11
-13
-27
-10
-22
-10
-21
-10
-8
-23
-19
-4
-12
-8
0
-24
-11
-12
-16
0
-18
-20
-12
-18
-4
-16
-11
-24
-9
-16
-23
-5
-10
-24
-11
-17
-11
-14
-17
-3
-5
-14
-17
-16
-16
-11
-3
-15
-24
-5
-3
-10
-11
-9
-6
-23
-4
-4
-9
-17
-14
-11
-9
-8
-11
4
5
1
-3
-6
8
0
-7
0
10
-12
-3
7
11
0
0
9
-7
3
11
-4
-7
6
-2
-8
-1
-5
-14
-15
-9
-16
-1
-2
-9
0
-14
-12
-8
-16
-23
-15
-4
-22
-21
-5
-3
0
-14
-5
-16
-15
-9
-17
1
-12
-9
-24
-17
-8
-20
-2
-20
-14
-20
-8
-5
-3
-20
-21
-20
0
-14
-26
-9
-1
0
-4
12
10
4
-4
-14
7
8
-12
-22
-10
14
6
-7
-9
-22
-2
-7
-7
-9
-21
-17
1
-10
-23
-17
-2
-12
-22
-14
-8
-4
-5
-22
-20
-25
-10
-12
-22
-10
-18
-15
-10
-15
0
-15
-25
-2
-1
-23
-2
-19
-21
-23
-7
-15
-14
-17
-16
-11
-20
-18
-2
-26
-2
-17
-20
0
-16
-3
-17
-19
-24
-8
-22
-24
-15
-13
-19
0
26
-3
-16
0
-19
7
-5
-7
-23
-14
16
-7
-26
-20
-6
-23
-12
-2
-21
-18
-21
-3
-4
-9
-7
-3
-6
-23
-13
-8
-14
-21
-20
-7
-23
-16
-20
-9
-16
-18
-16
-22
-21
0
-4
-14
-17
-19
-12
-6
-4
-25
-14
-12
-14
-7
-21
-12
-10
-16
-15
-18
-20
-24
-18
-12
-3
-6
-1
-24
-16
-18
-25
-18
-18
-7
-8
-15
-18
-7
-20
-15
-9
0
-23
-10
-14
-15
-5
-25
-20
-20
-1
-24
-19
-25
-2
-14
-25
-16
-28
-2
-17
-16
-23
-4
-22
-6
-26
-10
-6
-7
-15
-2
-17
-6
-6
-24
-17
3
-7
-21
14
-3
-9
3
13
8
-11
0
10
-5
8
-10
13
17
6
-9
1
-11
12
2
12
9
9
25
-9
-17
13
9
-27
-11
10
6
-5
-6
-9
-15
-19
-12
-7
-14
-20
-16
-26
-6
-4
20
5
7
27
-15
-16
-19
-7
-18
-6
-8
-23
-27
-11
-24
-6
-22
-11
-14
-19
-7
-27
-8
-5
-22
-6
-25
4
10
3
-9
-26
26
-24
-15
-3
-26
-25
-26
-2
-19
-5
-13
-27
-5
11
-26
-8
-2
-21
4
2
-18
-17
-10
-18
-3
-21
10
-17
-14
-27
-14
-19
-7
-22
18
-21
9
-4
-20
22
9
-20
-12
-26
-25
0
-18
-6
-16
-5
14
-4
-25
21
12
20
4
-16
-8
-23
-27
16
8
21
-9
-4
-21
-11
14
8
15
-18
24
-5
-9
-6
-21
-11
-16
-17
-16
-22
-11
-15
23
-23
-26
-2
-23
-20
-8
-18
-22
-14
-6
14
15
11
-11
-4
-26
3
-19
-23
-5
-18
-27
-16
-13
-13
-8
-21
8
-12
-9
-10
-27
-15
-4
23
15
4
-27
-4
-16
5
3
15
-2
-13
24
-14
-13
-17
21
3
-8
-23
-9
16
-5
-13
-7
-14
-22
10
8
-20
-24
-17
12
8
-26
-12
-10
-19
-8
-4
-17
-24
-4
-9
15
-14
-27
-10
-11
-10
-20
14
21
-7
23
-21
-14
-14
-20
18
-2
12
-27
-14
-20
-22
21
-12
-9
-15
-18
-10
-19
-23
-13
-18
17
2
6
0
-19
-16
-16
-11
-16
-27
-17
6
-23
-14
-16
28
11
-17
-25
-24
-10
7
-7
-7
-6
9
-6
-23
-19
-4
-9
-18
-23
-23
-2
-22
-7
-26
-6
-18
-26
-27
-3
-23
-8
-23
-16
-17
-27
-15
-27
3
-24
-21
-17
12
-5
10
-7
-6
-21
3
2
-7
-1
-8
10
16
-14
-2
-27
6
23
-8
-2
-5
3
-10
-14
-10
-2
-2
7
22
-5
-11
4
8
20
17
23
11
23
-14
10
22
5
-2
-11
9
2
14
3
-1
-10
6
43
22
7
12
-6
-6
0
-2
-15
9
-30
-42
9
35
20
-13
-23
13
11
1
-6
-32
-12
-5
20
-28
-2
25
31
11
-13
-16
-9
3
-1
7
-6
8
-6
-11
-10
-4
18
-12
-14
28
6
30
39
16
2
5
8
-1
-21
-6
6
-25
-27
-12
-35
-47
-35
26
13
2
0
15
26
11
-1
-14
-13
-19
-23
-2
-1
18
9
-6
10
9
6
-5
21
28
7
-9
13
1
-17
-6
5
-7
6
26
3
-17
0
0
21
-3
4
3
-8
1
-6
27
0
7
62
7
8
2
10
14
28
17
-9
-1
40
7
34
44
23
7
9
6
-12
-21
-4
1
-6
-18
-47
-20
-32
-27
-10
7
-9
-30
-1
22
0
11
-10
25
-14
21
-6
-16
-5
-7
-9
7
16
-22
-14
16
27
27
-6
24
21
7
-15
-4
7
14
-7
14
6
21
16
0
1
12
-7
-13
28
6
13
-19
-30
1
-5
-23
-21
15
-11
-23
3
14
22
-4
-16
-13
-11
20
-7
-20
-2
7
17
-5
-12
5
29
-11
1
1
4
-2
-30
13
4
20
20
30
-10
-41
-20
-14
18
-41
-46
-17
5
63
-5
30
50
-13
49
-28
6
57
1
-51
29
11
26
-24
-46
12
10
-6
27
51
-20
-23
-6
10
8
-6
6
0
-3
-17
10
-8
-29
-35
-18
16
9
25
31
15
-8
7
-10
-23
-2
0
-14
-6
-10
-4
12
-14
-2
-4
0
19
32
7
18
6
-1
26
-6
3
11
11
76
54
28
15
34
54
8
-13
-15
12
39
-14
-43
4
-74
-35
-54
-11
21
-72
-38
-22
1
24
2
12
11
4
-16
0
22
-5
-20
-25
-14
3
-6
9
1
-44
-22
2
19
29
-24
-2
5
3
8
43
25
42
22
-3
22
25
3
-22
-41
15
-2
37
11
-19
-9
-9
6
11
-4
-38
-27
-10
10
0
-18
-7
-23
-12
14
-18
-13
10
27
49
18
3
-11
5
18
63
65
13
5
-34
13
-15
-2
-27
0
12
6
-13
-2
27
25
4
-24
-13
25
-6
-12
-37
4
5
-7
-16
-16
-7
-2
2
6
1
-24
-11
21
19
-3
-11
23
11
1
-11
-2
8
10
5
-24
-15
-3
-32
-33
-33
-21
-39
-25
-8
0
-18
-34
24
-6
-19
-15
20
3
-17
-19
-4
28
3
1
-37
-1
9
14
10
0
4
0
-9
-34
-13
7
-6
19
-1
-18
-3
2
10
3
-11
13
7
23
11
-2
8
24
-6
-5
-16
19
9
-43
-26
-5
22
-3
-15
-12
-7
-3
32
1
19
17
16
28
17
-3
-6
13
11
20
1
2
21
10
-45
-28
-15
2
-7
-12
-14
0
16
41
-1
8
-10
14
32
2
7
-40
0
21
19
5
16
4
-8
11
19
9
2
-20
-24
-8
-15
-19
0
13
8
14
11
15
7
-12
-12
7
23
19
-17
22
19
-4
-9
-23
14
23
17
20
-25
-10
-21
6
23
12
-10
-2
26
17
10
5
-5
24
17
-2
-9
-4
-8
-8
-5
-22
-19
-4
11
10
10
-5
-31
13
-13
2
0
-48
12
6
20
-9
-29
2
0
25
15
-25
-27
-7
-14
-8
-25
-7
-59
-72
-74
-30
38
35
-30
-67
-36
84
62
51
30
-60
40
40
16
5
5
-7
-27
-8
-20
-5
-9
-6
-5
-30
-51
23
0
-27
-29
-46
9
26
-3
-12
-16
0
3
26
34
-14
-27
-26
-12
-3
-9
4
2
0
1
-26
10
10
18
0
-2
9
28
26
22
19
0
-4
-6
-16
-4
-28
-5
-9
-13
13
-55
-13
-15
-8
0
-69
-17
-29
-17
18
-30
-12
-10
-30
-5
14
-14
-27
-17
16
33
28
16
-5
8
0
21
-9
25
36
0
4
-27
6
33
-12
-16
-4
18
0
6
9
2
-6
-14
-28
-13
0
7
2
2
35
57
59
43
-14
15
12
52
40
-23
-11
-45
26
8
-4
4
-27
9
-6
13
25
65
27
2
24
10
-5
-10
-8
10
20
-4
5
19
15
0
10
0
1
-42
-35
-34
-22
-23
-70
-37
-2
2
7
-10
4
26
10
-8
21
47
29
20
39
26
28
24
-1
18
10
-9
3
-12
3
-1
-9
8
-28
-38
-32
-18
-10
-16
-8
8
37
22
12
29
-2
-4
19
-2
4
-3
4
11
-16
-1
-2
-8
-6
-37
-20
17
5
15
16
-4
-27
0
21
0
-22
-24
1
-12
0
5
-2
0
-10
-2
26
12
11
22
-11
20
-49
-22
0
0
-25
-17
-10
-4
8
7
4
19
-10
8
24
7
29
-11
5
15
6
-5
1
-17
9
-34
-23
-7
-4
-38
-48
-10
-19
-12
-4
-12
15
-12
-1
1
30
28
9
-10
6
10
24
21
-1
17
43
42
43
28
4
8
12
36
5
-13
-15
12
4
-6
5
-30
-23
-4
-6
16
-13
-26
-9
0
28
20
11
11
12
21
-18
-6
6
-22
-11
3
-6
-3
6
21
20
7
-26
19
11
3
5
-25
-9
-20
3
36
17
29
9
-3
6
26
3
-12
0
1
10
6
4
11
10
-2
-8
22
4
0
8
12
17
4
-22
-6
0
-12
-1
-25
-17
-6
-35
13
-2
5
20
28
20
-1
15
11
31
7
-2
13
27
25
46
45
28
-4
14
-14
-39
16
19
0
-64
-8
34
8
36
-25
-4
20
28
57
28
23
10
32
33
29
12
6
30
12
-15
-21
-7
9
-15
-6
-29
-23
-6
-13
20
5
6
-1
10
15
7
23
10
11
-13
-12
-21
-22
-20
15
-7
0
-9
-15
25
8
21
4
4
10
25
13
14
7
-3
20
5
-11
8
26
59
41
35
8
17
32
0
-6
-5
-24
-6
-15
-30
0
-29
-46
-40
-12
-4
-50
-34
-11
-16
-5
11
25
6
4
-18
23
16
5
-9
7
21
22
14
14
11
24
0
-12
-4
26
-4
5
9
-12
6
15
1
9
3
1
-8
6
-6
-14
-4
8
6
-17
-29
0
2
18
-37
-6
-14
-5
7
-32
-17
-8
-6
-4
-10
1
11
-19
3
-4
17
31
-24
-9
0
-4
-5
-17
-13
-6
-28
0
35
-7
-32
-33
3
-11
-23
-25
-26
-13
-6
-6
25
-14
-19
-19
-12
-16
-3
-24
-11
-20
-19
-14
-22
-2
-14
-21
-19
-3
4
19
1
0
-21
4
-3
13
-10
-11
11
3
10
-1
-6
-4
-7
-7
-1
-7
9
6
11
-12
1
3
-7
-13
27
20
-11
-20
-23
2
5
-9
-4
-8
3
-21
22
6
27
-23
-21
7
-13
-11
-6
-21
-4
-8
-23
-5
-26
-11
-27
-17
-19
-8
-2
-11
4
-6
-21
-13
-25
-9
-12
-3
-21
-18
-25
-3
-3
4
24
-13
-5
4
-26
-7
-21
-6
17
-11
-3
24
-10
-7
-14
-4
3
-5
-19
-9
-7
-21
-26
15
3
-19
-5
-18
5
26
-9
-13
-18
18
-21
-8
-9
16
9
16
2
21
26
-4
12
-26
14
-15
-27
-5
-5
-26
6
11
-23
-4
9
5
-19
12
25
5
-26
-20
-19
10
25
3
-25
-8
-9
-27
10
7
-6
-22
-23
-19
-6
-11
-5
-3
-16
-3
-14
-10
-20
-24
-8
-17
-8
-22
-9
-15
-7
-3
-22
-22
-4
-16
28
26
-10
-18
-22
-8
-7
-26
-8
-8
-23
-8
-25
-8
-3
-16
12
-12
-2
-26
-7
-15
-8
-16
-20
-3
-24
20
13
11
-26
-4
20
17
-20
-2
-27
-8
4
-16
-18
-12
-27
-25
21
11
4
16
-3
-19
19
-18
-20
-14
-22
-13
-25
-11
-8
-15
-24
-15
-13
-27
-9
-22
-21
-23
-23
-25
-4
-17
-12
-16
-13
-19
-9
-16
5
-2
-15
-24
-17
-14
5
-22
12
-8
-3
-2
-6
-18
-14
-4
-23
-23
-12
28
-5
-8
-15
-11
-14
26
0
-13
-16
7
22
-20
-25
-5
14
9
-9
-14
22
-4
1
-7
4
4
20
-11
-12
-4
-12
-14
-18
-10
-22
-22
-17
-9
-18
-9
-23
-27
-27
-15
-7
-17
-25
-17
-5
-27
-17
-4
-21
11
14
20
7
-1
4
1
22
4
-21
17
0
-8
-2
3
-7
-11
0
-11
-11
-14
9
9
-10
2
8
11
0
-16
-14
5
11
-10
-26
-9
-10
-9
-12
4
21
-8
7
3
17
8
-3
-1
-11
-7
-2
-16
-7
16
17
13
-6
-20
-8
20
-8
-31
-14
-4
11
-40
-4
6
6
-8
-32
42
37
0
8
-15
-13
-15
10
29
22
-16
-19
6
24
3
-34
-6
-4
-10
-16
-31
-36
-22
-19
-36
4
-4
0
18
-15
-62
-34
-6
-1
-3
-39
-20
-19
20
-5
2
-36
-4
23
-12
-21
4
6
1
-33
-23
-7
11
-12
-28
-15
-3
6
4
-2
3
-17
27
10
-7
-26
1
8
18
-25
-31
-27
7
11
-39
-24
-16
22
9
-28
-37
-26
-12
5
-16
-3
26
21
11
-8
9
16
11
1
-18
-54
-15
9
10
-28
-32
-29
23
20
-26
-35
-21
-1
-5
9
-33
-28
-23
-9
-2
-4
-39
6
18
-9
-13
0
13
-6
-18
16
41
17
-29
-41
26
8
27
-15
-20
-15
-12
13
-12
-7
17
-21
18
-19
-10
3
18
23
-7
-22
-16
6
12
-4
-16
-18
-41
-28
0
-3
-17
-20
-12
7
12
0
-14
-15
7
-9
-28
-12
0
28
-17
-36
1
20
-9
-48
-16
-18
-42
-31
-26
-3
9
-6
-19
-9
-12
31
14
10
3
-9
22
29
-6
-34
-38
9
-8
-23
-48
-36
-108
-66
6
-22
-16
-48
-41
-6
-46
7
10
-26
-52
-45
1
10
18
53
29
3
5
48
16
-69
-15
-46
-34
-50
-6
-23
0
-18
-32
-20
-2
17
27
-3
4
-6
13
23
7
-18
-44
-6
14
-20
-50
-17
4
-3
-18
-5
-16
36
35
30
-11
-13
24
-3
-8
-8
-3
7
-32
-13
-23
-18
-23
-12
-2
-29
17
-1
9
21
-13
6
-68
-25
17
-6
13
-21
3
29
18
9
27
48
29
5
20
68
34
24
-1
11
-3
12
16
2
-1
0
22
17
8
-14
17
24
10
-9
5
13
20
11
-28
18
10
34
9
-10
21
24
31
-17
28
0
-14
-5
-41
6
17
-21
2
-22
10
7
41
21
-10
12
20
22
38
53
5
1
-7
32
16
8
3
-17
1
2
-5
-21
-18
-9
-3
-26
-3
-36
-9
17
-23
-13
-4
22
22
10
7
-16
3
20
7
-6
-14
4
12
-17
-7
-15
-2
-18
-12
0
3
3
-24
-4
23
-3
-10
0
4
3
10
-3
9
16
7
-7
4
5
5
-18
-13
-10
-5
-18
1
14
2
1
14
29
10
13
3
1
-9
-9
-6
7
1
-30
-34
-10
15
3
-34
-6
-2
21
0
-8
18
1
-7
-2
1
1
-3
2
5
-33
-15
-9
11
-9
-28
-5
19
27
7
1
-9
-1
19
3
0
-7
0
19
-12
-17
-11
21
16
-8
-43
-21
2
0
-2
-20
6
10
16
-6
-5
1
7
0
-8
-8
-14
-1
0
-8
-7
-15
6
30
4
0
-11
0
-7
16
-2
-6
-7
1
12
-27
-38
3
10
-3
-22
8
2
9
3
16
18
0
-3
5
-17
-18
-18
-18
-4
5
15
7
24
-18
10
11
8
-11
-12
-18
24
14
19
-5
-11
19
23
8
7
3
-8
13
5
4
0
10
-2
8
3
0
-16
-13
22
13
7
-7
24
10
-29
-14
11
1
-16
-18
23
21
17
-25
-32
2
27
-14
-33
-44
-1
17
14
10
-14
-24
-2
14
-3
-39
-24
-12
19
-3
-8
-29
-104
-58
-44
-22
-9
-53
-64
-83
-112
14
36
11
-60
-69
24
50
47
57
50
-35
-37
-4
-55
-70
19
19
-8
-45
-22
21
16
-39
-51
-36
11
19
25
-5
-1
-22
18
12
0
-47
-30
1
-16
-10
-18
-9
-12
2
-11
-4
-5
34
28
6
0
-1
28
9
13
0
-6
-21
-10
13
-12
0
-11
11
13
25
-15
-7
10
52
24
-1
-22
-19
13
11
6
-48
-26
15
8
15
-9
11
11
-14
0
35
-18
-11
-6
17
5
20
24
0
-8
-24
0
20
-7
-21
-14
26
14
5
-8
0
8
2
12
0
6
15
0
-2
18
22
29
2
10
2
-14
-7
12
6
0
-33
9
0
-8
4
-6
23
5
15
9
11
9
23
10
-10
-14
-7
20
-10
8
-20
12
-4
2
2
-1
5
2
-8
-12
-6
0
25
25
-1
18
20
17
-8
-13
-13
-12
-7
-3
-7
-11
-19
-3
-10
-10
-8
-4
-11
-23
-26
-6
-9
-9
-11
-26
-25
-19
-24
-27
8
14
24
14
23
13
6
11
15
13
-23
-12
8
23
5
-4
-21
0
-7
-8
-8
-15
5
7
-7
-18
21
15
-14
-11
-17
21
-12
-15
-10
-12
-5
-6
-7
-19
28
-15
-2
-20
-20
25
10
-11
-6
-27
-16
-17
-2
-27
-12
-21
-8
-7
-22
-4
25
8
-4
-6
-9
27
9
-18
-4
-10
-10
-17
-10
-15
-26
-7
-16
-19
-10
-20
-18
-17
-28
-21
-7
10
9
-6
-26
-9
16
7
26
-19
-12
-13
-12
5
-14
-5
7
4
22
10
-6
-15
3
6
20
-17
-8
-15
20
19
-3
-8
-17
-27
-18
-27
22
8
-9
-11
-7
16
18
18
13
4
-4
-7
-8
-8
-7
22
5
-3
-8
8
3
16
-16
-3
8
27
26
6
-5
-25
-12
-6
-11
-7
25
-20
-14
-23
-9
-4
-20
-3
-26
-14
-13
21
7
-10
-25
-9
-20
-19
-25
-8
-27
-10
-17
-11
-25
8
-11
-3
-8
-19
-25
22
-23
-3
-27
-8
13
14
-12
-7
-8
-3
4
13
-9
-21
-25
14
17
-19
-6
-13
-12
-18
22
-17
-14
27
-13
-6
-3
-27
11
-25
-23
-20
7
7
-16
-10
-25
-24
-3
-3
12
17
-26
-27
-5
-22
-22
-22
-27
-7
-7
-24
-17
-25
-23
-13
-18
12
18
-26
-14
-13
-20
-9
-23
-7
-20
-16
-8
-21
-10
-19
10
19
-16
-20
-11
4
17
25
-17
-25
-19
-6
-18
-26
-16
-5
23
12
5
27
1
14
20
24
-6
-22
2
19
11
-22
-11
-25
11
7
-19
-14
2
11
-6
-3
-5
-21
-11
-22
-10
-15
-20
-16
-23
-25
-4
-26
-16
-15
-23
-15
-25
-26
-9
-21
-13
-13
-20
-11
-5
20
25
26
25
9
13
5
10
2
12
-5
13
21
-4
19
-26
-12
18
-1
6
-27
-4
6
25
6
0
9
15
-24
-6
-9
-2
-16
22
20
-16
-20
-22
-19
-22
-25
-9
11
-9
21
-19
-22
-11
-15
2
-6
32
22
-18
-10
5
2
-2
1
11
-32
-16
-5
-1
-7
-14
3
1
-6
-22
-13
-2
7
18
12
-10
2
-1
0
-10
-9
20
-1
5
4
-4
-10
-18
-18
-4
-3
-5
-2
-12
-26
15
8
6
4
0
-7
14
2
-11
-6
-14
17
-11
-3
9
-29
-7
-5
-4
-2
-44
4
20
4
-2
-10
4
8
11
3
0
2
0
-15
2
-3
25
3
-3
-3
-10
26
-6
-2
-2
-11
2
6
-11
-3
-28
0
1
3
0
-53
-4
0
-14
-11
-22
36
8
-20
-20
11
46
2
-9
-13
7
13
-6
1
-6
0
10
10
-11
7
-3
12
1
5
-7
-7
21
15
9
-22
-20
-6
6
8
-4
-29
-9
0
0
0
-17
0
2
23
7
-5
11
7
11
0
1
5
-9
15
-13
-3
11
-11
8
-3
4
23
15
9
16
22
11
-24
3
-1
0
-2
8
12
-1
2
18
10
-5
-1
13
7
12
0
0
-18
2
2
-5
-2
-25
5
-1
-4
1
2
-24
5
-6
40
10
-2
-6
8
16
5
4
-10
1
22
23
-12
19
-5
-25
1
7
-2
-27
-37
-43
-39
19
87
107
-42
-52
-6
50
65
7
-20
-26
39
91
8
-18
-26
-19
32
38
-29
-18
-32
-34
-31
-20
3
18
29
-22
-11
-23
3
25
25
-6
-9
7
22
19
0
-15
-15
-2
34
15
-14
-26
-36
14
-12
-20
-13
1
18
7
8
-11
-26
2
7
23
-3
-12
4
-12
3
-13
-12
-9
-5
-6
-16
-9
26
18
-21
-9
16
11
30
-9
-7
-2
12
-28
-24
11
16
-23
-45
2
8
25
-33
-48
16
1
21
16
27
-16
-3
-18
19
-5
4
-17
8
5
8
-4
-8
-7
-13
6
-8
8
7
-10
-7
0
1
-3
21
-14
-36
-1
-31
7
-6
1
-15
-22
-3
12
23
-8
-15
-3
9
6
9
4
-19
9
-10
12
27
-38
-3
-16
-6
5
-40
6
-5
-7
10
16
-10
-1
-10
-5
-1
-8
-12
-5
-5
11
-4
-2
-13
23
23
-4
10
-12
-5
-14
-9
18
-20
7
0
-18
3
-34
-17
41
2
2
-13
26
-49
12
25
44
37
14
14
-5
-19
3
-5
-20
-4
-13
-31
-4
-23
-24
-36
-15
20
2
-27
-45
12
18
21
28
18
-2
-4
4
-18
3
6
-20
-31
11
32
29
-44
2
19
-10
7
-61
1
2
-5
15
-25
-27
3
34
31
15
23
-6
0
25
-35
20
14
7
11
-10
5
10
2
22
4
6
-25
-8
22
48
31
2
-9
3
-7
10
27
-2
3
-33
-4
19
-14
4
-10
21
18
-8
-8
-18
3
-13
-13
5
36
28
-2
-17
0
-34
1
-32
-1
1
-38
-34
-20
18
19
-59
-15
-12
2
7
-25
19
-24
0
7
-65
-54
6
47
57
1
-26
-12
-8
0
19
23
-14
5
27
-12
-13
-7
-23
-24
-12
9
-16
14
24
20
-22
-19
12
22
29
24
2
7
1
26
16
-2
13
18
-3
-9
14
17
24
-20
-11
-20
-26
14
30
7
-34
17
27
4
18
26
32
7
16
9
4
5
49
27
16
20
49
26
3
-12
20
18
-44
9
-18
-32
-29
-1
0
-5
-15
-24
18
14
5
20
23
28
-6
-10
-19
29
96
30
1
0
29
22
-9
-9
-5
-23
-31
12
26
12
-2
1
14
30
-11
-1
11
16
26
2
38
25
16
14
12
-27
6
9
-26
-31
-9
0
15
-1
10
20
26
18
-6
4
-12
15
2
-6
42
17
-20
-22
-22
13
-24
-6
20
36
0
-39
-2
19
-54
-83
-12
27
4
-22
-30
-3
5
20
-41
-62
-6
20
-1
-40
-26
12
34
-17
-92
0
21
47
47
-13
8
2
0
20
2
30
-32
-19
-20
7
-10
-35
-11
-19
-11
-3
-3
90
-1
-21
11
33
68
-9
-101
-61
-21
-54
11
-19
0
-40
-81
1
18
41
-55
-93
-36
-3
14
-11
-21
-10
-5
-17
-42
45
-12
22
-34
-12
7
-19
-3
12
-12
-18
43
-5
-5
1
25
49
19
6
-8
-5
8
31
-1
-4
-7
-25
-2
-12
10
-9
-17
-6
29
10
16
-18
24
56
9
0
-20
15
26
2
-20
1
-13
-28
-29
-36
-9
-22
-16
-3
-17
-28
-17
6
12
24
-8
8
11
4
9
-13
3
7
0
9
-10
-28
-10
-28
-14
32
12
12
17
-8
-12
0
0
-6
-13
-16
-9
6
18
15
-14
18
26
-1
4
-9
13
2
-13
1
-34
-8
-22
-21
-30
-24
1
-4
-11
-3
-7
7
9
-2
6
-10
20
27
-4
1
-8
18
15
-23
-25
-11
-8
-14
-6
-9
-11
8
-14
7
-6
-19
-5
10
4
1
-30
30
19
-5
5
-23
20
6
2
-12
34
50
39
27
-9
7
14
34
3
-26
-2
9
12
-2
11
-11
5
-6
0
28
1
-13
0
-14
10
-5
4
-11
-2
-11
12
4
0
12
-8
21
-8
-10
5
3
18
-3
5
-11
3
-9
8
6
-1
6
-14
13
27
24
3
2
0
15
-3
2
-5
-1
6
9
-9
-10
24
17
11
-9
-8
22
5
-5
0
-9
-8
-10
-31
-31
-3
-30
-34
-26
-14
15
-20
-12
10
28
18
-12
-16
-1
18
1
18
9
25
10
33
28
14
6
29
11
9
-11
-49
-35
-24
-28
-17
5
-25
-40
-40
-41
26
64
24
23
5
45
63
11
-6
-13
-17
-8
-15
-10
-41
-17
-24
-8
-10
-23
8
5
-22
-28
-24
-6
27
1
9
23
16
22
-17
0
-15
-9
-27
-12
10
1
-1
-6
10
4
-19
-4
-15
16
3
18
4
4
-25
0
6
1
4
-5
82
73
48
20
1
26
15
5
-16
29
-4
14
1
-13
28
0
-11
-11
-20
-10
-15
-3
-16
-21
17
-3
17
-10
-10
-14
-10
-2
7
11
-7
15
0
-11
14
16
4
-14
-23
-13
9
1
-2
-28
-1
15
27
24
18
-8
-1
0
24
26
-2
2
0
12
-15
-7
-12
5
6
-20
-20
-13
-2
-14
-21
-31
-10
0
-10
-7
5
-26
-6
8
1
10
-51
1
10
-26
-16
-52
-13
0
0
-8
37
-15
-24
-22
-24
5
-12
-5
10
-4
1
14
46
19
-13
30
20
9
-5
10
18
20
33
11
12
-16
-26
15
3
-34
-14
-27
-15
20
0
-2
15
17
30
0
-1
8
21
-4
-11
13
16
26
5
5
-11
-14
8
-23
-15
7
23
0
21
-15
0
-9
16
10
-15
0
15
23
2
-12
-8
-12
-4
-10
22
-14
21
3
6
-5
-30
-16
5
1
3
-7
13
8
12
-16
-5
9
19
-12
2
7
15
29
-11
11
37
21
13
-6
4
-30
-7
8
3
8
-13
-12
-9
17
0
0
7
16
2
-6
-8
0
14
-2
-4
31
46
24
-13
-7
35
40
34
23
0
-1
2
11
-1
-16
-9
1
17
-6
-33
-23
13
-19
0
-6
-29
-4
7
14
5
5
14
21
15
7
-23
23
-14
19
17
9
13
-6
-11
2
9
14
-3
11
18
9
26
-3
-6
18
-14
-2
17
24
20
-11
-8
1
6
-11
-10
4
-2
-18
-33
3
9
0
0
5
-1
4
17
7
20
-10
5
-20
-8
22
-32
-19
-26
-3
34
-14
-13
-18
19
29
9
-3
-31
-8
8
37
28
25
11
28
-38
0
38
52
51
-50
-41
-45
-33
25
-52
-28
-27
-21
-1
-51
-27
-28
-55
-48
-8
0
10
31
50
-7
-11
-11
-12
29
-41
-31
-18
19
26
-28
-26
9
19
4
-3
-28
-47
-30
10
0
7
31
27
13
0
3
-9
0
16
-2
10
-13
7
2
10
0
-26
0
-6
30
29
-1
12
-1
25
35
11
6
12
34
53
59
8
-5
44
42
17
-1
-15
19
0
0
0
-20
-5
8
-5
-7
-14
-42
-37
2
-3
11
0
15
26
6
-3
-11
6
24
-13
-9
16
27
-6
-9
3
23
16
-17
-3
21
12
15
-1
2
3
37
17
25
-5
0
23
7
21
-2
-32
3
10
33
-16
-21
4
11
0
-11
15
0
-7
-31
-25
-1
-19
-9
2
10
3
-29
-4
19
4
18
-20
-2
-17
-24
-12
-6
17
31
1
-24
1
-4
3
-30
-9
-28
-27
-22
-15
-27
-7
-26
-24
-3
-2
-18
-14
-20
-12
-16
-25
-18
-18
-11
-25
-23
-6
-24
-21
-11
3
0
-16
-1
-5
-11
14
12
5
-2
-2
-4
0
0
17
-11
-10
11
13
-10
3
9
5
10
-3
3
-6
27
-14
-21
-4
-17
20
-5
-11
-22
-22
-10
-6
-27
2
-20
-27
-11
-15
-20
-27
-20
-8
-19
-5
-25
-3
-7
-9
-17
-23
-16
-12
-6
-20
-20
-18
-25
-10
-20
-16
-21
-5
-21
-21
-26
-26
-5
-7
-15
-22
-8
-14
-22
-20
-17
-27
-21
-19
-20
-16
-16
-20
-11
-12
-17
-21
-16
-13
-15
-13
-13
-17
11
-4
-18
-10
8
-19
-5
-27
2
-27
-9
-13
-23
-19
-25
-17
-7
-27
-26
-22
-18
-19
-19
-10
-3
-16
1
-17
-16
-23
-18
-22
-15
-26
-26
-26
9
9
-19
-2
-8
20
5
18
-7
-10
23
-13
-4
5
-19
-19
-12
-7
-16
-9
-6
-15
-24
-20
-5
-21
-24
-13
-16
-19
-24
-12
-2
-9
-3
-14
-14
-2
-13
-21
-3
-15
-16
-8
-5
-6
-17
-9
-10
-14
-4
-12
-26
-27
-19
-18
-26
-17
-12
-20
-13
-8
-16
-17
16
-9
-20
7
-19
-5
16
16
3
-25
-17
-6
-18
-6
-24
-27
-19
-11
-24
-25
-17
20
27
-18
-11
-3
-21
-17
-18
-24
-27
-6
-4
-22
-20
-3
-3
-12
-3
-5
-14
-10
-16
-13
-22
-8
-6
-8
-10
-22
-24
-10
-12
-8
-2
-4
-23
-4
-16
-14
-3
-11
-18
-8
-5
-13
-16
-5
-25
-19
-18
-25
-26
-19
-8
25
-7
12
7
-4
-26
-4
-10
-11
-16
-2
-22
-8
-21
-3
-4
-26
5
-24
-15
-21
8
-22
-13
-16
-3
-22
-25
-22
-19
-8
-9
-16
-3
-11
-18
-25
-13
-22
-13
-11
-23
-27
-5
-22
-8
-22
-8
-5
-14
-21
-26
25
-3
25
3
-19
2
-13
-15
-7
-1
5
-3
-1
-18
-10
-4
2
-5
-4
11
-6
-4
-15
-6
9
-5
-7
-19
-3
-1
-10
12
3
2
-11
-2
6
18
10
22
11
11
12
10
-1
-1
3
5
11
-17
-6
-24
-9
-18
-18
-23
-7
4
-27
-7
-2
-19
-17
-5
-12
-18
-20
-12
-24
-4
-11
-12
-16
-12
0
9
-9
6
-5
-9
11
4
-15
-18
4
5
-1
-5
-19
12
24
-15
9
-7
-5
17
-12
3
-12
2
-16
-20
16
7
-23
-14
-17
22
-16
-15
-8
26
-17
-24
-20
14
21
-6
-11
-14
-23
-19
-11
-9
-18
-10
-14
-19
-8
-23
-22
-6
-23
-27
-26
-14
8
-6
-27
-28
-16
-26
-20
-21
-10
-21
-6
-13
-27
-16
-3
-24
-8
7
-12
-7
-14
-3
-11
-26
-17
19
-5
-24
-20
-18
15
-27
-5
-5
-6
-16
-22
23
-21
12
-21
-5
17
15
-6
-14
22
24
-14
-27
-4
11
27
-7
-24
-25
-20
-12
-8
26
-9
-18
-15
-18
-23
-25
-14
0
5
22
-24
18
-26
23
10
26
-24
-26
-15
15
17
-25
-13
-6
12
18
8
24
-10
-18
-11
-21
-21
-19
-13
-6
-4
-9
-4
-17
-25
-5
-12
-9
-8
10
-14
-9
-18
-20
-23
-22
-26
-24
11
4
-2
-3
-9
-27
-24
-4
-23
-8
-22
-14
-12
-3
-18
-23
21
24
-4
-3
-23
-19
-12
-5
-12
-11
-8
10
8
23
-23
8
3
-20
-6
-11
-25
-25
-19
-22
-4
23
13
-21
-18
-10
21
-26
-10
-16
13
-15
-13
-3
-13
-22
-17
-6
-21
-3
-16
-19
-3
-14
-22
25
21
-27
-7
-17
-5
-14
-21
-5
-21
-8
-16
-4
-10
-14
-6
-8
-8
-6
17
-14
-25
2
-6
-3
-16
-11
-26
-24
-6
-20
-11
-3
-28
11
-12
-21
-9
-2
-8
-11
-10
-9
8
-15
-10
-10
21
-3
-26
-25
19
12
-11
-4
25
19
-6
-19
-7
-14
-17
-18
-11
-24
-6
-13
-21
-7
-13
-9
-5
-12
-12
-9
-18
-16
-13
-25
-21
-14
-6
-23
-22
-22
-25
27
21
17
-1
10
20
-19
-11
-14
2
1
-19
-25
-25
-23
22
-15
2
18
4
12
-18
19
-10
-20
6
-6
-24
-13
0
10
-5
-24
15
-3
7
-12
25
4
0
16
13
13
1
-11
3
18
-10
23
28
52
-44
-14
-13
13
-2
-10
0
-29
0
75
-28
-30
-79
-59
-21
-51
-6
-79
-81
-36
53
122
24
13
19
-15
-26
47
28
6
18
28
0
-25
28
-23
-31
-33
-5
2
-37
27
-7
-27
38
106
105
26
-5
50
-67
-35
33
47
61
-8
4
43
2
43
18
8
23
25
32
-21
-8
-39
-35
-50
3
74
25
37
5
-18
13
-50
-65
-21
-2
7
-32
-32
-43
-32
-13
-38
-37
-19
-50
-23
-42
-1
41
22
-8
28
34
21
-12
21
-33
-37
19
-6
49
-63
-59
-22
22
81
-19
-24
40
8
-25
-28
-18
41
0
-46
20
6
-55
-92
-79
86
39
-45
-51
-6
89
19
42
26
21
119
-3
12
7
2
82
-27
-5
-29
20
1
-5
-26
-9
-24
16
-9
-24
21
24
-9
-17
-6
6
-20
-22
-7
14
-21
-14
-9
-22
-4
12
15
7
-53
-23
-23
-98
-95
41
88
-28
1
-82
30
-4
12
30
-18
-10
41
32
-33
-24
-20
-1
-41
5
-1
-27
-15
3
46
26
12
7
-28
24
11
-20
-27
8
90
-20
8
3
31
26
-15
-9
-16
-33
-27
24
6
-14
0
16
9
17
11
-11
10
23
18
-5
-26
-2
0
-45
0
69
49
28
45
67
38
15
30
-12
-27
0
-29
22
45
12
-15
0
13
-24
-34
34
57
-37
-8
48
16
25
7
4
-12
-21
-11
8
15
14
-15
-25
-76
-57
10
14
18
-71
-32
-9
3
47
-7
-54
6
7
-42
-42
-20
33
22
-44
-36
-51
-10
-3
-24
17
51
-21
-10
-11
31
31
-5
-29
-9
84
69
52
-12
16
39
-15
-24
-46
-9
-4
33
-10
-34
-33
15
1
-23
-20
-48
-26
-1
-34
-54
-40
-49
-16
-37
-33
-26
-86
-73
-44
-1
-50
-44
-38
-26
-60
-75
-33
-41
-12
3
-29
10
-15
-43
-5
-29
19
-8
12
-22
-88
-7
9
-25
36
-80
3
37
41
40
25
-35
9
14
0
-2
-13
-19
14
-2
-29
-17
18
28
55
44
97
111
50
52
28
51
41
0
-38
-29
-6
2
-1
23
-31
-42
-28
1
-13
-23
-31
-20
5
9
0
-65
-37
0
17
46
0
-4
-9
-10
4
-7
8
13
35
10
-11
-12
4
27
9
15
17
11
6
-7
17
27
10
8
14
9
47
6
0
-6
6
13
-14
-16
-25
-5
-20
-12
-22
-48
-21
-3
13
-15
-20
-6
14
3
10
12
18
16
-5
-24
-12
34
25
14
-4
-34
9
12
12
8
-9
-21
3
4
15
1
-13
12
14
12
0
-38
30
14
-8
-11
41
40
21
-30
-9
58
33
19
-5
-21
4
-19
17
11
-1
-4
31
23
2
-8
31
43
37
4
1
-29
-13
5
-27
-59
-63
-22
-21
-38
-58
-24
3
3
-23
-38
-11
-24
-15
-11
-2
-3
2
10
7
0
0
9
-8
-7
-4
2
-11
0
-10
-1
3
-3
0
-6
10
0
1
-1
2
-1
-27
8
19
1
44
12
17
-19
-39
-42
28
8
-5
-26
-55
-20
-10
-21
-6
-28
-23
0
15
16
16
4
-15
14
-6
59
-7
-7
-29
-6
63
0
6
12
10
16
-8
-21
15
-2
-52
16
6
1
9
-14
-96
-76
-4
96
106
-27
8
18
26
83
31
20
-32
17
61
-6
9
-8
-32
-28
-11
-20
3
-10
-74
-34
-1
