memory_initialization_radix = 10;
memory_initialization_vector=

31,
58,
-8,
82,
14,
36,
32,
17,
69,
80,
-49,
-3,
-13,
-26,
76,
-32,
-99,
-4,
-30,
-48,
-27,
-9,
-91,
-79,
-95,
-65,
-69,
-63,
65,
11,
-1,
-9,
-58,
31,
66,
-63,
-83,
-61,
13,
81,
-59,
-82,
-14,
60,
48,
-51,
-43,
15,
24,
-2,
77,
63,
44,
-73,
-123,
84,
15,
13,
-109,
-67,
51,
-32,
-48,
-135,
17,
-13,
-2,
-117,
-65,
43,
-48,
-94,
-46,
-48,
20,
18,
-1,
-6,
-1,
2,
-49,
27,
64,
39,
9,
0,
-6,
49,
60,
71,
-31,
49,
41,
72,
35,
-23,
58,
56,
29,
50,
-77,
24,
39,
-8,
11,
-71,
-5,
68,
15,
-19,
-11,
47,
5,
33,
-38,
-11,
69,
2,
40,
-31,
57,
46,
60,
-2,
-29,
-6,
58,
57,
10,
-29,
-2,
-7,
66,
14,
-86,
46,
48,
57,
-55,
-79,
19,
28,
-18,
-63,
-37,
3,
36,
50,
25,
-36;
